const unsigned char model_tflite[] = {
  0x1c, 0x00, 0x00, 0x00, 0x54, 0x46, 0x4c, 0x33, 0x14, 0x00, 0x20, 0x00, 0x1c, 0x00, 0x18, 0x00, 0x14, 0x00, 0x10, 0x00, 0x0c, 0x00, 0x00, 0x00, 0x08, 0x00, 0x04, 0x00, 0x14, 0x00, 0x00, 0x00, 0x1c, 0x00, 0x00, 0x00, 0x8c, 0x00, 0x00, 0x00, 0xe4, 0x00, 0x00, 0x00, 0x84, 0x32, 0x00, 0x00, 0x94, 0x32, 0x00, 0x00, 0x94, 0x3f, 0x00, 0x00, 0x03, 0x00, 0x00, 0x00, 0x01, 0x00, 0x00, 0x00, 0x04, 0x00, 0x00, 0x00, 0xaa, 0xcb, 0xff, 0xff, 0x0c, 0x00, 0x00, 0x00, 0x1c, 0x00, 0x00, 0x00, 0x3c, 0x00, 0x00, 0x00, 0x0f, 0x00, 0x00, 0x00, 0x73, 0x65, 0x72, 0x76, 0x69, 0x6e, 0x67, 0x5f, 0x64, 0x65, 0x66, 0x61, 0x75, 0x6c, 0x74, 0x00, 0x01, 0x00, 0x00, 0x00, 0x04, 0x00, 0x00, 0x00, 0x90, 0xff, 0xff, 0xff, 0x16, 0x00, 0x00, 0x00, 0x04, 0x00, 0x00, 0x00, 0x08, 0x00, 0x00, 0x00, 0x6f, 0x75, 0x74, 0x70, 0x75, 0x74, 0x5f, 0x30, 0x00, 0x00, 0x00, 0x00, 0x01, 0x00, 0x00, 0x00, 0x04, 0x00, 0x00, 0x00, 0x4e, 0xcd, 0xff, 0xff, 0x04, 0x00, 0x00, 0x00, 0x0c, 0x00, 0x00, 0x00, 0x6b, 0x65, 0x72, 0x61, 0x73, 0x5f, 0x74, 0x65, 0x6e, 0x73, 0x6f, 0x72, 0x00, 0x00, 0x00, 0x00, 0x02, 0x00, 0x00, 0x00, 0x34, 0x00, 0x00, 0x00, 0x04, 0x00, 0x00, 0x00, 0xdc, 0xff, 0xff, 0xff, 0x19, 0x00, 0x00, 0x00, 0x04, 0x00, 0x00, 0x00, 0x13, 0x00, 0x00, 0x00, 0x43, 0x4f, 0x4e, 0x56, 0x45, 0x52, 0x53, 0x49, 0x4f, 0x4e, 0x5f, 0x4d, 0x45, 0x54, 0x41, 0x44, 0x41, 0x54, 0x41, 0x00, 0x08, 0x00, 0x0c, 0x00, 0x08, 0x00, 0x04, 0x00, 0x08, 0x00, 0x00, 0x00, 0x18, 0x00, 0x00, 0x00, 0x04, 0x00, 0x00, 0x00, 0x13, 0x00, 0x00, 0x00, 0x6d, 0x69, 0x6e, 0x5f, 0x72, 0x75, 0x6e, 0x74, 0x69, 0x6d, 0x65, 0x5f, 0x76, 0x65, 0x72, 0x73, 0x69, 0x6f, 0x6e, 0x00, 0x1a, 0x00, 0x00, 0x00, 0x9c, 0x31, 0x00, 0x00, 0x94, 0x31, 0x00, 0x00, 0x04, 0x31, 0x00, 0x00, 0xb4, 0x30, 0x00, 0x00, 0x98, 0x30, 0x00, 0x00, 0x7c, 0x30, 0x00, 0x00, 0x6c, 0x18, 0x00, 0x00, 0xdc, 0x13, 0x00, 0x00, 0xcc, 0x11, 0x00, 0x00, 0xbc, 0x01, 0x00, 0x00, 0x2c, 0x01, 0x00, 0x00, 0x0c, 0x01, 0x00, 0x00, 0xf8, 0x00, 0x00, 0x00, 0xe4, 0x00, 0x00, 0x00, 0xdc, 0x00, 0x00, 0x00, 0xd4, 0x00, 0x00, 0x00, 0xcc, 0x00, 0x00, 0x00, 0xc4, 0x00, 0x00, 0x00, 0xbc, 0x00, 0x00, 0x00, 0xb4, 0x00, 0x00, 0x00, 0xac, 0x00, 0x00, 0x00, 0xa4, 0x00, 0x00, 0x00, 0x9c, 0x00, 0x00, 0x00, 0x94, 0x00, 0x00, 0x00, 0x74, 0x00, 0x00, 0x00, 0x04, 0x00, 0x00, 0x00, 0x32, 0xce, 0xff, 0xff, 0x04, 0x00, 0x00, 0x00, 0x60, 0x00, 0x00, 0x00, 0x10, 0x00, 0x00, 0x00, 0x00, 0x00, 0x00, 0x00, 0x08, 0x00, 0x0e, 0x00, 0x08, 0x00, 0x04, 0x00, 0x08, 0x00, 0x00, 0x00, 0x10, 0x00, 0x00, 0x00, 0x24, 0x00, 0x00, 0x00, 0x00, 0x00, 0x06, 0x00, 0x08, 0x00, 0x04, 0x00, 0x06, 0x00, 0x00, 0x00, 0x04, 0x00, 0x00, 0x00, 0x00, 0x00, 0x00, 0x00, 0x0c, 0x00, 0x18, 0x00, 0x14, 0x00, 0x10, 0x00, 0x0c, 0x00, 0x04, 0x00, 0x0c, 0x00, 0x00, 0x00, 0x84, 0xc5, 0x69, 0xed, 0x36, 0x88, 0x10, 0xa5, 0x02, 0x00, 0x00, 0x00, 0x02, 0x00, 0x00, 0x00, 0x04, 0x00, 0x00, 0x00, 0x06, 0x00, 0x00, 0x00, 0x32, 0x2e, 0x31, 0x39, 0x2e, 0x30, 0x00, 0x00, 0x9e, 0xce, 0xff, 0xff, 0x04, 0x00, 0x00, 0x00, 0x10, 0x00, 0x00, 0x00, 0x31, 0x2e, 0x31, 0x30, 0x2e, 0x30, 0x00, 0x00, 0x00, 0x00, 0x00, 0x00, 0x00, 0x00, 0x00, 0x00, 0x74, 0xc2, 0xff, 0xff, 0x78, 0xc2, 0xff, 0xff, 0x7c, 0xc2, 0xff, 0xff, 0x80, 0xc2, 0xff, 0xff, 0x84, 0xc2, 0xff, 0xff, 0x88, 0xc2, 0xff, 0xff, 0x8c, 0xc2, 0xff, 0xff, 0x90, 0xc2, 0xff, 0xff, 0x94, 0xc2, 0xff, 0xff, 0x98, 0xc2, 0xff, 0xff, 0xe2, 0xce, 0xff, 0xff, 0x04, 0x00, 0x00, 0x00, 0x04, 0x00, 0x00, 0x00, 0x01, 0x00, 0x00, 0x00, 0xf2, 0xce, 0xff, 0xff, 0x04, 0x00, 0x00, 0x00, 0x04, 0x00, 0x00, 0x00, 0xfd, 0xff, 0xff, 0xff, 0x02, 0xcf, 0xff, 0xff, 0x04, 0x00, 0x00, 0x00, 0x10, 0x00, 0x00, 0x00, 0xdb, 0x69, 0x09, 0xbe, 0x5c, 0xd4, 0x92, 0x3d, 0x42, 0xf3, 0x19, 0x3d, 0xf1, 0x9b, 0x09, 0x3d, 0x1e, 0xcf, 0xff, 0xff, 0x04, 0x00, 0x00, 0x00, 0x80, 0x00, 0x00, 0x00, 0xb5, 0x30, 0x00, 0x3e, 0x4b, 0xd4, 0x0a, 0x3c, 0xe0, 0x78, 0xad, 0x3c, 0x2e, 0xb1, 0x7d, 0x3b, 0xd2, 0x3e, 0x94, 0xbd, 0x6d, 0x16, 0x5d, 0x3d, 0xf6, 0xdf, 0x8a, 0x3d, 0x4c, 0x3a, 0xe5, 0xbc, 0x7b, 0xda, 0x26, 0x3d, 0x90, 0x32, 0x0b, 0xbc, 0x62, 0x6f, 0xf7, 0xbc, 0xd3, 0xc3, 0x3e, 0x3d, 0xc1, 0x31, 0x23, 0x3c, 0x72, 0x8c, 0x9f, 0xbc, 0x51, 0xa9, 0xeb, 0x3c, 0x67, 0x28, 0x4e, 0xbd, 0xdb, 0xae, 0x24, 0x3e, 0x42, 0xc1, 0xf0, 0x3d, 0x00, 0x00, 0x00, 0x00, 0x69, 0x64, 0xe2, 0x3d, 0x29, 0x9d, 0x79, 0x3d, 0x20, 0x79, 0x8f, 0x3d, 0xb0, 0x62, 0x29, 0xbd, 0xd3, 0xc8, 0x06, 0xbc, 0x43, 0xbf, 0x89, 0x3c, 0x6a, 0x8c, 0x00, 0xbb, 0xee, 0x03, 0x80, 0x3d, 0x31, 0xf8, 0xac, 0x3d, 0x63, 0xa5, 0xbf, 0x3c, 0xf2, 0xa9, 0xb5, 0xbc, 0x2e, 0x61, 0x65, 0x3d, 0xc1, 0xc2, 0xb9, 0xbc, 0xaa, 0xcf, 0xff, 0xff, 0x04, 0x00, 0x00, 0x00, 0x00, 0x10, 0x00, 0x00, 0x0a, 0xe2, 0xe5, 0x3e, 0x83, 0xdd, 0xf3, 0x3d, 0xe2, 0x8e, 0x82, 0x3e, 0x0d, 0xd7, 0xfb, 0x3e, 0x80, 0x2c, 0x98, 0x3d, 0xfd, 0xcc, 0x46, 0xbe, 0x91, 0xb2, 0x1d, 0x3e, 0x8e, 0xd0, 0xa3, 0xbe, 0xbb, 0x76, 0x8b, 0xbe, 0xe0, 0xc3, 0x1d, 0xbd, 0xd0, 0x0f, 0x89, 0x3e, 0x43, 0x58, 0xc2, 0xbd, 0xa1, 0xd3, 0xa5, 0x3e, 0xa0, 0xde, 0x92, 0x3d, 0xc6, 0x9d, 0x81, 0xbe, 0x3b, 0x0f, 0x40, 0xbe, 0xc5, 0x0a, 0x10, 0xbe, 0xdf, 0x36, 0xf6, 0xbc, 0x71, 0x7c, 0x86, 0xbb, 0x33, 0xf7, 0x02, 0xbe, 0xde, 0x2b, 0x52, 0xbe, 0xad, 0x84, 0xb2, 0x3d, 0x6b, 0x80, 0x03, 0x3f, 0x2b, 0xaf, 0xde, 0x3e, 0xa4, 0xce, 0x1b, 0xbe, 0xfc, 0x6e, 0x30, 0x3b, 0xd1, 0x38, 0xe3, 0xbc, 0x63, 0xad, 0xe5, 0x3e, 0xd8, 0xa5, 0x00, 0x3e, 0xc5, 0xfa, 0x0a, 0xbe, 0x79, 0x71, 0x8d, 0x3e, 0x08, 0x99, 0x80, 0x3c, 0x2d, 0xdb, 0x21, 0x3e, 0x6b, 0xd0, 0x54, 0x3e, 0x6a, 0xae, 0x65, 0xbe, 0x2a, 0x9f, 0xb9, 0xbe, 0xe4, 0x35, 0x23, 0xbe, 0x06, 0x82, 0x86, 0xbe, 0xbf, 0x27, 0xd7, 0x3d, 0x37, 0x33, 0xa4, 0x3e, 0x43, 0x3b, 0x1a, 0x3e, 0x27, 0x48, 0x5b, 0xbe, 0x5a, 0x93, 0xe4, 0xbd, 0xc7, 0x2b, 0x84, 0x3d, 0x4f, 0xc5, 0x82, 0x3e, 0xe3, 0x13, 0x0a, 0xbd, 0x4d, 0xb9, 0x60, 0xbe, 0x72, 0x02, 0x1c, 0xbe, 0x9c, 0xe5, 0x11, 0x3d, 0x35, 0x21, 0x92, 0xbd, 0x26, 0xd4, 0xfb, 0xbd, 0xbf, 0x71, 0x61, 0xbd, 0xe0, 0xc3, 0x61, 0xbe, 0xed, 0xa1, 0xfa, 0xbd, 0x56, 0xeb, 0x09, 0x3e, 0x29, 0x3e, 0xc0, 0x3b, 0x4d, 0x51, 0x89, 0x3e, 0xde, 0x8f, 0xea, 0x3d, 0x67, 0x50, 0x65, 0xbe, 0xe7, 0xba, 0x59, 0x3d, 0x8c, 0xc8, 0xfe, 0x3d, 0x23, 0x21, 0xcf, 0x3d, 0x8a, 0x49, 0xc1, 0x3b, 0x06, 0xdc, 0xab, 0xbd, 0x0f, 0x27, 0x4d, 0x3e, 0xf8, 0x4f, 0x13, 0xbe, 0xd5, 0x0f, 0xb2, 0x3d, 0x9f, 0x03, 0xf5, 0x3e, 0x0b, 0xf8, 0x9d, 0x3e, 0x30, 0xd1, 0x8b, 0x3e, 0xfb, 0x21, 0xe4, 0xbe, 0x58, 0x5d, 0x3a, 0x3c, 0x29, 0x64, 0x87, 0x3d, 0xa9, 0x16, 0x36, 0x3e, 0x9b, 0xaf, 0x4f, 0x3c, 0x88, 0xf3, 0xd0, 0x3c, 0x30, 0xdd, 0xd7, 0xbd, 0x8e, 0x82, 0x85, 0x3e, 0x6d, 0x51, 0xd0, 0x3c, 0xd9, 0xc9, 0xbc, 0x3d, 0xa1, 0x5f, 0x84, 0xbc, 0xc5, 0x25, 0x2f, 0xbe, 0x3e, 0x92, 0x43, 0xbe, 0xcb, 0x91, 0x80, 0x3e, 0x8c, 0xfd, 0x42, 0xbe, 0x84, 0x5f, 0x83, 0x3e, 0x5e, 0xe2, 0xe2, 0x3e, 0xe0, 0x5c, 0x06, 0x3e, 0xb9, 0xce, 0x50, 0xbe, 0xc2, 0x25, 0x7b, 0xbd, 0x0f, 0x64, 0x38, 0xbd, 0x4e, 0x1d, 0x4d, 0xbd, 0x09, 0xa9, 0x0b, 0xbe, 0x55, 0xf6, 0x6a, 0x3e, 0x47, 0x3c, 0x6c, 0xbd, 0xd1, 0x23, 0xc7, 0x3d, 0x8c, 0xf1, 0xda, 0xbd, 0xce, 0x71, 0xab, 0x3d, 0xce, 0x22, 0x82, 0xbd, 0x64, 0x41, 0x96, 0xbe, 0xc2, 0x25, 0x4c, 0x3e, 0xea, 0xda, 0x90, 0x3e, 0xb1, 0x12, 0x2d, 0xbd, 0x52, 0xd2, 0xce, 0xbd, 0x45, 0xb0, 0x86, 0xbe, 0xf7, 0x75, 0x92, 0x3e, 0xf7, 0x11, 0x8b, 0xbe, 0xaa, 0xc6, 0x9f, 0x3e, 0x41, 0xce, 0x40, 0x3d, 0xb5, 0x05, 0x49, 0x3e, 0xe3, 0x7c, 0x8c, 0x3e, 0x58, 0xcd, 0x8a, 0x3e, 0x79, 0x1f, 0x0c, 0x3f, 0x15, 0xc0, 0xae, 0x3c, 0x0e, 0xeb, 0xcb, 0x3e, 0x4f, 0x6e, 0x69, 0x3e, 0x8d, 0x29, 0xb1, 0x3e, 0xf6, 0x21, 0x98, 0x3e, 0x2f, 0x12, 0x71, 0xbe, 0x84, 0x6c, 0x3d, 0x3e, 0x34, 0xc2, 0xaa, 0x3e, 0x1d, 0x2b, 0x1c, 0x3e, 0xd5, 0xcb, 0x83, 0xbd, 0xfd, 0x8f, 0x01, 0xbe, 0xa6, 0x47, 0xf2, 0xbe, 0xee, 0x86, 0x93, 0x3e, 0xcd, 0x85, 0x0e, 0xbe, 0x48, 0xed, 0xf8, 0xbd, 0x7e, 0xce, 0x55, 0xbe, 0xdd, 0x93, 0xb5, 0x3d, 0x7f, 0x80, 0x90, 0x3e, 0x1a, 0x42, 0xb1, 0x3c, 0x5c, 0xa1, 0x53, 0x3e, 0x41, 0x71, 0x01, 0x3e, 0x5b, 0x9d, 0xb5, 0xbe, 0xb1, 0xe3, 0x25, 0xbe, 0x98, 0x42, 0xbd, 0xbe, 0xa7, 0xad, 0x64, 0x3e, 0xe7, 0xba, 0x87, 0xbd, 0x8a, 0x66, 0x76, 0x3e, 0xc6, 0x10, 0x4b, 0x3d, 0x82, 0xf8, 0x65, 0x3e, 0x79, 0xa6, 0x8b, 0xbc, 0x4d, 0xaf, 0x23, 0x3e, 0xac, 0xf7, 0x0e, 0xbe, 0x60, 0xa7, 0xa4, 0x3e, 0x02, 0xe3, 0xcc, 0xbd, 0x0e, 0x71, 0x12, 0x3d, 0x98, 0x06, 0x07, 0x3d, 0xfd, 0x3c, 0xb2, 0x3e, 0x9b, 0x91, 0x87, 0x3e, 0x83, 0x45, 0x08, 0x3e, 0xfe, 0x83, 0x0c, 0xbe, 0x35, 0x57, 0x1a, 0xbc, 0xc0, 0x0e, 0x22, 0xbe, 0x89, 0x62, 0x0b, 0x3e, 0x41, 0x7e, 0x9b, 0xbe, 0x4a, 0xa8, 0x98, 0x3b, 0xf9, 0x57, 0xe8, 0x3e, 0x3a, 0x0f, 0x8d, 0x3e, 0x04, 0xfd, 0x20, 0xbe, 0xec, 0xd7, 0xb0, 0xbe, 0x44, 0x64, 0xa1, 0xbd, 0x98, 0xf4, 0xa2, 0x3d, 0x04, 0xff, 0xa2, 0x3e, 0x48, 0x43, 0x33, 0xbe, 0xa4, 0x0b, 0x39, 0xbe, 0xc5, 0x42, 0x3c, 0x3b, 0x41, 0x64, 0x80, 0xbe, 0xc2, 0x80, 0xc5, 0xbd, 0xe1, 0x50, 0xa5, 0x3e, 0x48, 0x64, 0x06, 0x3e, 0x80, 0x4e, 0x77, 0xbd, 0xb5, 0xaa, 0x18, 0xbe, 0xe1, 0x21, 0xc8, 0xbb, 0x84, 0x46, 0x36, 0xbe, 0xa9, 0x63, 0x35, 0xbb, 0x1d, 0xc2, 0xba, 0xbe, 0x8d, 0xda, 0x19, 0x3e, 0x4b, 0x99, 0xbb, 0x3e, 0xc7, 0x4d, 0x8d, 0xbe, 0x57, 0x1a, 0x43, 0xbe, 0x01, 0xec, 0xc8, 0x3e, 0xc2, 0x31, 0xeb, 0x3d, 0x43, 0x8a, 0x81, 0xbe, 0xa6, 0xe8, 0x03, 0x3e, 0x0b, 0x1b, 0x37, 0xbd, 0x7c, 0x0f, 0x28, 0xbe, 0x87, 0x98, 0x6e, 0x3e, 0xed, 0xb7, 0xd0, 0xbe, 0x7a, 0xa1, 0x47, 0xbd, 0x42, 0xb4, 0x2f, 0x3e, 0x9e, 0x65, 0x6a, 0x3e, 0x02, 0xf5, 0xd3, 0xbc, 0xbf, 0x85, 0xb3, 0xbe, 0x9f, 0xa8, 0xd2, 0xbd, 0x5b, 0x65, 0x6e, 0x3e, 0x4c, 0x23, 0x77, 0xbd, 0x8f, 0x03, 0x80, 0x3d, 0x9f, 0xec, 0x0c, 0x3e, 0x9d, 0x82, 0xdb, 0x3e, 0x31, 0x45, 0x4e, 0x3e, 0x4f, 0xbe, 0x3a, 0x3e, 0x9d, 0x3d, 0xc5, 0xbd, 0x6b, 0x1d, 0x89, 0x3d, 0xb1, 0x4c, 0xb2, 0x3e, 0x20, 0x88, 0xc8, 0xbc, 0x6b, 0xa0, 0xce, 0x3c, 0xc8, 0x5d, 0x1a, 0x3e, 0x1b, 0x68, 0x09, 0x3e, 0xf7, 0x65, 0x93, 0xbe, 0x06, 0x52, 0xcf, 0xbd, 0x59, 0x1b, 0xa5, 0x3b, 0x2d, 0x54, 0xb0, 0xbe, 0xdd, 0xb7, 0xc9, 0xbd, 0x50, 0xaa, 0xd5, 0xbe, 0xf8, 0xbd, 0xcc, 0xbd, 0xd7, 0x0a, 0x4a, 0xbe, 0xa6, 0x8e, 0x75, 0x3e, 0x18, 0x42, 0xbd, 0xb9, 0xdc, 0x8e, 0x5e, 0xbc, 0x24, 0x94, 0x89, 0xbe, 0x03, 0x36, 0x17, 0x3d, 0x23, 0xbe, 0xa7, 0xbe, 0x16, 0xf4, 0x8e, 0xbd, 0x24, 0xa8, 0xaa, 0x3e, 0xb9, 0x32, 0x9f, 0xbe, 0xee, 0x0d, 0xc6, 0x3e, 0xa0, 0x6a, 0xf6, 0x3d, 0xa6, 0x6f, 0xa2, 0x3e, 0x92, 0xf9, 0xd6, 0xbe, 0xcc, 0x12, 0x16, 0x3e, 0x0b, 0x85, 0x89, 0x3d, 0xdb, 0x2b, 0x9e, 0xbd, 0x28, 0x3e, 0x8a, 0xbe, 0x3c, 0x8d, 0x55, 0xbd, 0xff, 0x22, 0x94, 0x3c, 0x84, 0xa2, 0x55, 0x3e, 0x60, 0x01, 0xa3, 0xbe, 0x61, 0xee, 0xd8, 0x3d, 0x7e, 0x32, 0x45, 0xbe, 0x0f, 0x44, 0x87, 0xbe, 0x17, 0x54, 0xf3, 0xbb, 0xd4, 0xd8, 0xd5, 0x3d, 0x55, 0xaa, 0xbd, 0x3d, 0x3b, 0x01, 0xb0, 0x3e, 0xdc, 0xa7, 0x26, 0x3e, 0x8f, 0x23, 0xbf, 0xbe, 0xce, 0x16, 0x25, 0x3e, 0x01, 0x09, 0xb8, 0x3d, 0xf3, 0x3a, 0x14, 0xbe, 0x2b, 0xe3, 0x95, 0xbd, 0xa5, 0x62, 0xaa, 0xbe, 0x42, 0x1d, 0x02, 0x3e, 0xa6, 0x79, 0x3d, 0x3e, 0x69, 0x60, 0x3a, 0xbe, 0x00, 0xdf, 0xf6, 0x3c, 0xa9, 0x2e, 0x31, 0xbe, 0x12, 0x43, 0x27, 0xbe, 0xd8, 0x4e, 0x8a, 0xbe, 0xe8, 0xd4, 0x9d, 0x3d, 0xfe, 0x23, 0x7e, 0x3d, 0x87, 0x17, 0x1f, 0xbd, 0x6e, 0x1c, 0x3d, 0x3e, 0x7a, 0x30, 0x87, 0x3e, 0xc2, 0xc9, 0x08, 0x3f, 0x66, 0x98, 0xed, 0xbd, 0xd1, 0x9c, 0xd8, 0x3d, 0xe1, 0xd7, 0xdc, 0x3e, 0xa9, 0xef, 0x94, 0x3e, 0xbe, 0xa8, 0xa7, 0xbd, 0xd8, 0x7c, 0xaf, 0xbd, 0x1d, 0xab, 0xc8, 0x3e, 0x99, 0x4f, 0x07, 0x3e, 0xd7, 0x78, 0x1e, 0x3e, 0xfa, 0xb7, 0x95, 0x3d, 0x6e, 0xd7, 0x75, 0x3e, 0x13, 0x67, 0xec, 0x3e, 0x74, 0xbb, 0x85, 0x3c, 0xea, 0x29, 0xa9, 0x3c, 0xad, 0x6f, 0x85, 0xbe, 0xd8, 0xa7, 0x50, 0x39, 0xcd, 0x82, 0x0d, 0xbd, 0x87, 0xa6, 0x42, 0xbe, 0xbb, 0x44, 0xab, 0xbd, 0x90, 0xb5, 0x25, 0x3e, 0xe3, 0xad, 0xeb, 0x3e, 0xd2, 0xd2, 0xec, 0xbc, 0x18, 0x03, 0xff, 0xbd, 0x27, 0x86, 0xe2, 0x3e, 0x3d, 0x3e, 0xc8, 0xbe, 0xf7, 0xbe, 0xde, 0x3d, 0x36, 0x15, 0x9b, 0x3e, 0x86, 0x5f, 0x37, 0x3d, 0xbb, 0x62, 0x37, 0xbd, 0xa0, 0x6e, 0x83, 0xbe, 0x80, 0xed, 0xd0, 0xbe, 0xa0, 0x35, 0x4c, 0x3e, 0x0d, 0x72, 0x3a, 0xbd, 0x4b, 0xd0, 0xae, 0xbd, 0xec, 0x9d, 0x8f, 0xbe, 0x9d, 0xbf, 0x2f, 0x3d, 0x5b, 0x24, 0x22, 0xbe, 0x83, 0x85, 0x92, 0x3d, 0xf2, 0x65, 0x5e, 0x3e, 0x98, 0x35, 0xef, 0x3c, 0x78, 0x6f, 0x1e, 0xbe, 0x3b, 0x18, 0x37, 0xbe, 0x8d, 0xe7, 0xcb, 0xbd, 0xea, 0x8f, 0xd5, 0x3d, 0x36, 0x16, 0x66, 0x3c, 0x14, 0xeb, 0xc0, 0xbe, 0x1e, 0x13, 0x79, 0x3e, 0x8e, 0x08, 0x27, 0x3e, 0x40, 0x7d, 0x93, 0x3e, 0x93, 0x13, 0x9f, 0xbd, 0xbd, 0xed, 0xb1, 0xbe, 0x31, 0xa9, 0x05, 0xbe, 0x8d, 0x49, 0xa4, 0x3e, 0xd7, 0xc2, 0xd0, 0x3c, 0x1f, 0xe5, 0x8e, 0x3d, 0xad, 0x6d, 0x13, 0x3e, 0xeb, 0x6d, 0x86, 0xbe, 0x15, 0x23, 0x61, 0x3e, 0x4d, 0xda, 0x33, 0xbe, 0xcb, 0xe3, 0x3b, 0x3e, 0x33, 0xd5, 0xd8, 0x3b, 0x3c, 0x21, 0xa5, 0xbc, 0x83, 0xa2, 0x6f, 0x3e, 0x6a, 0x37, 0x17, 0xbe, 0x16, 0x70, 0xe9, 0xbc, 0x68, 0x1c, 0xa5, 0x3d, 0x7d, 0xfa, 0x37, 0xbe, 0x65, 0x57, 0x8a, 0xbe, 0x53, 0x53, 0x3b, 0xbe, 0x02, 0x6e, 0x27, 0x3e, 0xbb, 0x90, 0x86, 0x3e, 0x51, 0x8b, 0x89, 0xbe, 0x93, 0xd9, 0x9a, 0xbe, 0x8a, 0xa9, 0x70, 0x3e, 0x14, 0xe9, 0x86, 0xbe, 0x41, 0xcb, 0x10, 0x3e, 0x7e, 0xff, 0x2f, 0xbe, 0x6b, 0xaf, 0x7f, 0xbe, 0xda, 0x89, 0x45, 0xbe, 0x77, 0xe6, 0x75, 0x3e, 0xb3, 0xb4, 0x9c, 0xbe, 0x96, 0xb3, 0x91, 0x3d, 0xa3, 0xd0, 0x8f, 0x3b, 0xd4, 0x91, 0x84, 0x3e, 0x11, 0x0a, 0xc6, 0x3d, 0x43, 0x4d, 0x75, 0xbe, 0x18, 0xfa, 0xd7, 0x3b, 0x52, 0x4f, 0xed, 0x3d, 0x22, 0x70, 0x94, 0x3e, 0xf4, 0x72, 0xb3, 0xbe, 0x96, 0x15, 0xdb, 0x3d, 0x86, 0x49, 0x75, 0x3e, 0xa0, 0x90, 0x2e, 0x3d, 0x26, 0x62, 0xd0, 0x3d, 0xbb, 0x6a, 0xd0, 0x3d, 0x84, 0x95, 0x28, 0xbd, 0x81, 0xa4, 0x8e, 0xbe, 0xce, 0x98, 0xf8, 0xbd, 0x43, 0xa2, 0xf4, 0x3c, 0xe6, 0x08, 0x53, 0xbd, 0x33, 0xba, 0xbd, 0x3e, 0xba, 0xbd, 0x95, 0x3e, 0x2a, 0xed, 0xd0, 0x3c, 0xc1, 0x66, 0x0d, 0x3e, 0xd5, 0xbb, 0xcb, 0x3e, 0xcd, 0x6b, 0x42, 0x3d, 0x8d, 0x67, 0x1f, 0x3e, 0x1e, 0x6a, 0xaa, 0xbd, 0x5b, 0xdb, 0xdd, 0xbc, 0x1c, 0x90, 0x80, 0xbe, 0x35, 0xc0, 0x95, 0x3e, 0xd6, 0xe6, 0x04, 0xbe, 0x8c, 0x9a, 0x90, 0xbe, 0x16, 0x73, 0xc7, 0xbe, 0x5f, 0xf0, 0x71, 0xbc, 0x10, 0xf2, 0x34, 0x3e, 0xab, 0x63, 0xb7, 0xbe, 0xcc, 0x96, 0x4a, 0x3e, 0x37, 0xe8, 0x3d, 0xbe, 0x4f, 0x16, 0xa1, 0x3e, 0x33, 0x43, 0x57, 0x3c, 0xe3, 0x52, 0x97, 0xbe, 0xe9, 0xb5, 0x79, 0xbe, 0x11, 0xe4, 0x9a, 0xbe, 0x7c, 0xa7, 0x55, 0xbc, 0x1d, 0x11, 0xed, 0x3d, 0xab, 0xa5, 0x91, 0xbe, 0xcd, 0x0e, 0xe7, 0xbd, 0x9e, 0x56, 0x66, 0x3e, 0x5b, 0xda, 0x68, 0xbe, 0xb6, 0x5f, 0x46, 0xbe, 0xcc, 0x12, 0xef, 0x3d, 0xf5, 0x66, 0xb9, 0xbd, 0x9a, 0x16, 0x09, 0x3e, 0x02, 0x23, 0x87, 0xbd, 0xfc, 0x8f, 0x47, 0x3e, 0x1d, 0x46, 0x4b, 0xbd, 0x4a, 0xd7, 0x8f, 0xbc, 0x5f, 0xc6, 0xb8, 0xbd, 0x0d, 0x2c, 0x20, 0xbd, 0xdc, 0x21, 0xa2, 0x3e, 0x31, 0x75, 0x12, 0xbe, 0x6b, 0x33, 0xfe, 0x3c, 0x2a, 0xac, 0x04, 0x3d, 0xe3, 0x51, 0x83, 0x3d, 0x09, 0xc4, 0x5d, 0xbc, 0x77, 0x8f, 0xfe, 0xbd, 0x6c, 0x7e, 0xe6, 0x3d, 0x37, 0xa6, 0x8a, 0xbe, 0x50, 0xe6, 0x38, 0xbe, 0xdb, 0x2a, 0x96, 0xbe, 0xd1, 0x36, 0xb6, 0xbe, 0x75, 0x6f, 0xa2, 0x3d, 0x46, 0x1b, 0x40, 0xbd, 0x5d, 0x97, 0xaa, 0x3c, 0x51, 0xaf, 0x2d, 0xbc, 0x35, 0x59, 0xcc, 0x3d, 0xf0, 0x32, 0xac, 0x3e, 0x7d, 0xf1, 0xbc, 0xbe, 0x5d, 0xcb, 0xf8, 0x3e, 0x36, 0xbf, 0x51, 0xbe, 0xb7, 0x51, 0x15, 0xbe, 0xa8, 0x38, 0x09, 0x3f, 0x17, 0x6d, 0x25, 0x3e, 0x5c, 0x05, 0xfc, 0x3c, 0x31, 0xaa, 0xab, 0x3e, 0x05, 0x62, 0x88, 0x3d, 0x6b, 0x2b, 0x77, 0x3e, 0xe9, 0x44, 0x46, 0x3e, 0x8d, 0xdf, 0x6d, 0x3e, 0x1c, 0x3d, 0xda, 0x3d, 0x13, 0xdd, 0xc5, 0x3d, 0xb3, 0xd3, 0x89, 0x3e, 0xe6, 0xd8, 0x85, 0x3e, 0xf8, 0xd3, 0x7b, 0xbe, 0x3b, 0xd5, 0x49, 0x3e, 0xce, 0xc2, 0x0a, 0x3e, 0xbb, 0xea, 0x1b, 0xbd, 0x18, 0x16, 0x90, 0x3d, 0x8c, 0xcd, 0x87, 0xbe, 0x02, 0x81, 0x5f, 0x3d, 0xd6, 0x13, 0x40, 0x3e, 0x11, 0xb0, 0x46, 0xbd, 0x0f, 0x79, 0xe6, 0xbd, 0x74, 0xff, 0x15, 0xbc, 0xb8, 0x18, 0x89, 0xbe, 0x7a, 0xf2, 0x60, 0x3d, 0xb6, 0x74, 0x98, 0xbd, 0x2c, 0xfa, 0xf6, 0x3e, 0x26, 0xa5, 0x1d, 0x3e, 0x6f, 0xf2, 0xe8, 0x3e, 0x51, 0xe8, 0xd7, 0x3d, 0x70, 0x78, 0x8d, 0xbd, 0xff, 0x74, 0x2a, 0xbe, 0x3e, 0xbc, 0x76, 0x3e, 0xce, 0x5f, 0x17, 0x3e, 0x67, 0xe5, 0xb8, 0x3e, 0x13, 0xe9, 0x84, 0xbe, 0xd8, 0x6d, 0xa5, 0xbd, 0x78, 0x81, 0xb3, 0x3e, 0xac, 0x5b, 0xb9, 0x3e, 0x47, 0x82, 0x0a, 0x3e, 0x20, 0xbd, 0xa2, 0x3e, 0x26, 0xbd, 0xf3, 0xbd, 0xd7, 0x16, 0x99, 0xbe, 0x48, 0x7b, 0x3d, 0x3e, 0x8f, 0xad, 0x8b, 0x3d, 0xc9, 0x34, 0x7b, 0x3e, 0x20, 0xe9, 0x60, 0xbc, 0xb0, 0x12, 0xa8, 0xbe, 0x5b, 0x18, 0x60, 0x3e, 0x7e, 0x54, 0x34, 0xbd, 0xed, 0xa7, 0xed, 0xbe, 0xb4, 0x82, 0x01, 0xbd, 0x14, 0x94, 0x91, 0x3e, 0x9b, 0xc5, 0x9b, 0xbd, 0xd5, 0x1c, 0x08, 0x3d, 0x1d, 0xbe, 0x33, 0x3d, 0xa2, 0x75, 0x75, 0x3c, 0xdf, 0x31, 0xb0, 0x3c, 0x95, 0xad, 0x15, 0x3e, 0xb0, 0x27, 0xb2, 0xbe, 0xd5, 0x7d, 0x39, 0x3e, 0x49, 0x70, 0x26, 0xbd, 0x7b, 0x62, 0x97, 0x3e, 0x3a, 0xae, 0x32, 0x3e, 0xc0, 0x27, 0x9e, 0xbd, 0x7f, 0xe5, 0x77, 0xbd, 0x73, 0x01, 0x70, 0xbe, 0xa4, 0x2d, 0xd0, 0x3d, 0x6f, 0x99, 0xdd, 0xbd, 0xc6, 0x84, 0x7d, 0x3e, 0xc2, 0x7f, 0xeb, 0x3a, 0xac, 0x4b, 0xbe, 0xbd, 0x0d, 0xc2, 0x5b, 0x3d, 0x70, 0xa2, 0xbf, 0x3e, 0x26, 0x9d, 0x8e, 0x3e, 0x88, 0x16, 0x7b, 0x3d, 0xd9, 0x73, 0x56, 0xbd, 0xf9, 0xad, 0x31, 0x3e, 0x1a, 0x24, 0xe9, 0x3c, 0x38, 0x55, 0x13, 0xbd, 0x82, 0x9f, 0x7b, 0x3d, 0xa8, 0x57, 0x86, 0xbd, 0x22, 0x53, 0x2c, 0x3e, 0x4d, 0x89, 0xb9, 0xbd, 0x3b, 0xfc, 0x9f, 0x3e, 0xc9, 0x9e, 0x76, 0xbe, 0xff, 0xa1, 0x7c, 0x3d, 0x9a, 0xe2, 0x5f, 0x3e, 0x5e, 0x3b, 0xda, 0x3d, 0xc1, 0xe9, 0xab, 0xbd, 0x9f, 0x07, 0x94, 0x3e, 0xe4, 0x5a, 0x18, 0xbe, 0xea, 0x95, 0x03, 0x3e, 0x90, 0x8f, 0xb0, 0x3b, 0xf3, 0x8e, 0x91, 0x3e, 0xb2, 0xa7, 0x9f, 0xbc, 0x1c, 0x95, 0x9a, 0xbe, 0x3b, 0x60, 0xec, 0xbd, 0x39, 0x11, 0xa6, 0xbd, 0x81, 0x48, 0x9d, 0xbe, 0xb5, 0xca, 0xda, 0xbe, 0xaf, 0x21, 0x6f, 0xbe, 0xe4, 0x28, 0x8a, 0x3d, 0xda, 0xe5, 0xf2, 0xbd, 0x69, 0xf5, 0x90, 0xbe, 0xa3, 0xe8, 0x55, 0x3e, 0xd6, 0x5b, 0xa2, 0x3e, 0xc7, 0x2a, 0x22, 0x3e, 0xa6, 0xd4, 0x52, 0xbd, 0x34, 0xda, 0xb6, 0x3d, 0x75, 0xfe, 0x91, 0x3e, 0xd1, 0xef, 0x00, 0x3d, 0xa2, 0x1c, 0x34, 0x3e, 0xd1, 0x66, 0xbd, 0xbe, 0x0c, 0x35, 0x11, 0xbe, 0x35, 0x66, 0x19, 0xbe, 0x48, 0x62, 0xa1, 0x3e, 0xeb, 0x98, 0xad, 0xbe, 0xa3, 0xf4, 0x48, 0xbd, 0x9d, 0x87, 0x33, 0x3e, 0x54, 0x28, 0xc6, 0x3e, 0xbf, 0xd9, 0x74, 0x3c, 0x87, 0x01, 0x9f, 0xbd, 0xfe, 0x8a, 0xd4, 0x3d, 0xfc, 0xd4, 0x8f, 0x3d, 0xdd, 0x9d, 0x8d, 0xbe, 0x18, 0x8c, 0x1b, 0x3e, 0x3b, 0xd9, 0x99, 0xbc, 0x99, 0xd8, 0xc2, 0x3d, 0xef, 0xc7, 0x02, 0xbe, 0xec, 0x0e, 0x3e, 0xbe, 0x75, 0xf0, 0x9c, 0xbe, 0xd8, 0x62, 0xb5, 0xbe, 0x4e, 0x23, 0xb9, 0x3c, 0x98, 0x28, 0x9a, 0xbe, 0xfc, 0x19, 0xaa, 0x3e, 0xd2, 0xb7, 0x85, 0xbe, 0xd6, 0x86, 0x7d, 0x3e, 0x24, 0xe6, 0x83, 0x3d, 0x4c, 0x3f, 0x5b, 0xbe, 0xb9, 0x5f, 0x61, 0x3d, 0x09, 0x66, 0xb8, 0xbd, 0x6e, 0x1b, 0x55, 0xbe, 0xf1, 0xd2, 0xdd, 0x3e, 0x09, 0x1c, 0xa8, 0x3e, 0x51, 0xae, 0x0e, 0x3e, 0xe3, 0x2b, 0x87, 0x3e, 0xee, 0xbe, 0x8e, 0xbd, 0x92, 0xdb, 0xea, 0xbd, 0xff, 0x90, 0x27, 0xbe, 0x10, 0xbe, 0xf1, 0xbc, 0xfd, 0x40, 0x8c, 0x3e, 0x86, 0xb3, 0x65, 0xbe, 0x28, 0x5d, 0x56, 0xbd, 0xfe, 0x45, 0x8e, 0xbe, 0xc6, 0x55, 0x6d, 0x3e, 0xe2, 0x3a, 0x0c, 0xbe, 0xf9, 0x72, 0x2b, 0xbe, 0x87, 0x4c, 0x94, 0xbe, 0x96, 0x2e, 0xcc, 0xbd, 0xfa, 0xc7, 0xd3, 0xbd, 0x2a, 0x7c, 0xb1, 0xbd, 0x8c, 0x32, 0xe5, 0x3d, 0xe9, 0xe0, 0x89, 0x3e, 0x6a, 0x23, 0x71, 0xbe, 0xee, 0xdd, 0x78, 0x3e, 0x36, 0x12, 0xa1, 0xbd, 0x82, 0xfd, 0x5f, 0x3e, 0xa9, 0x75, 0x13, 0xbe, 0xf8, 0xfc, 0x10, 0xbd, 0x88, 0x0b, 0x51, 0xbd, 0x36, 0x21, 0x7c, 0x3e, 0x80, 0xd3, 0x66, 0xbd, 0x28, 0x8a, 0x6e, 0x3d, 0x80, 0x7f, 0x69, 0xbc, 0xc2, 0x97, 0x76, 0x3e, 0x80, 0xaf, 0x88, 0xbe, 0xc9, 0x1d, 0x2a, 0xbe, 0x3c, 0x81, 0x87, 0xbe, 0x40, 0x5d, 0x82, 0xbc, 0x8e, 0x84, 0x9f, 0x3e, 0xed, 0x47, 0x16, 0x3f, 0xb8, 0x3a, 0xe5, 0x3b, 0x8d, 0xd7, 0x82, 0xbe, 0xcd, 0x27, 0xcb, 0xbd, 0x6d, 0x5d, 0x94, 0x3e, 0xd4, 0x55, 0x49, 0xbe, 0x86, 0x43, 0x47, 0x3d, 0x0e, 0xc8, 0xb2, 0xbd, 0x62, 0xc9, 0x43, 0xbc, 0x90, 0x14, 0x34, 0xbe, 0x77, 0x9e, 0x9e, 0xbe, 0xb4, 0xa2, 0x85, 0xbe, 0x48, 0x3f, 0xe2, 0x3d, 0x81, 0x04, 0xa5, 0x3e, 0x3e, 0x41, 0x55, 0xbd, 0x16, 0x48, 0x5f, 0x3e, 0x86, 0x5c, 0xb5, 0xbd, 0x5a, 0xb4, 0x85, 0x3c, 0xe6, 0x52, 0x80, 0xbe, 0xc7, 0xb6, 0x8d, 0x3e, 0x71, 0xa1, 0x8e, 0xbe, 0x90, 0xe6, 0x67, 0x3a, 0x7e, 0x68, 0x55, 0x3c, 0x3c, 0xea, 0x7e, 0x3d, 0xa5, 0x51, 0x65, 0xbd, 0x6e, 0xd4, 0xc9, 0x3e, 0x40, 0x76, 0xa8, 0x3d, 0xb0, 0x6f, 0x03, 0xbe, 0xb3, 0xea, 0xa9, 0xbd, 0x5e, 0xec, 0x90, 0x3e, 0x08, 0xc0, 0x2c, 0xbe, 0x92, 0x77, 0x83, 0xbd, 0x0e, 0xbb, 0x9b, 0x3e, 0xf3, 0x39, 0x4c, 0x3c, 0x32, 0x87, 0x62, 0x3e, 0xe5, 0x80, 0x81, 0x3e, 0x94, 0x1b, 0xc9, 0x3d, 0x00, 0xbd, 0xe4, 0x3d, 0x1f, 0xc5, 0xa4, 0x3d, 0x5c, 0x9f, 0x50, 0xbd, 0xe1, 0x0a, 0xac, 0xbe, 0xf6, 0x3d, 0x97, 0xbc, 0xa8, 0x6c, 0xf5, 0x3d, 0xee, 0x35, 0x0f, 0xbf, 0x8d, 0xc4, 0x6c, 0xbd, 0x4b, 0x2a, 0xf5, 0x3c, 0xec, 0x9f, 0xa7, 0xbe, 0x48, 0x1f, 0xf2, 0xbc, 0xd0, 0x39, 0xba, 0xbe, 0x05, 0x8a, 0x82, 0x3d, 0x55, 0xb9, 0xcc, 0xbc, 0x47, 0x30, 0xb0, 0x3c, 0x21, 0x02, 0xa8, 0xbe, 0x91, 0x34, 0x7d, 0x3e, 0x5a, 0x09, 0x23, 0xbd, 0x47, 0xda, 0xba, 0x3d, 0x2a, 0x1b, 0xac, 0xbd, 0x1c, 0xe7, 0x67, 0xbe, 0xfe, 0x1e, 0x76, 0x3e, 0x70, 0x7f, 0x98, 0xbe, 0xdb, 0xfe, 0x01, 0xbe, 0x9e, 0x15, 0x04, 0x3e, 0x57, 0xce, 0x90, 0xbe, 0x5b, 0xb5, 0xab, 0xbe, 0x36, 0x9b, 0xb7, 0x3d, 0x67, 0x76, 0x08, 0x3e, 0xba, 0x8d, 0x6c, 0x3e, 0x71, 0xa7, 0x46, 0x3e, 0xb1, 0x99, 0x4e, 0xbe, 0x33, 0x5c, 0x3e, 0x3d, 0xa2, 0x29, 0x26, 0xbe, 0x7c, 0x27, 0xd6, 0xbd, 0x2c, 0x33, 0x54, 0x3d, 0x7c, 0x1a, 0x5b, 0xbd, 0x2c, 0x2e, 0xcd, 0x3c, 0x73, 0x36, 0x90, 0xbe, 0xf1, 0x4d, 0xad, 0x3d, 0x90, 0x81, 0xd8, 0x3e, 0x80, 0xaa, 0xa0, 0xbe, 0xb3, 0x8e, 0xd0, 0xbd, 0x92, 0x7d, 0x4d, 0xbc, 0xc5, 0xba, 0x19, 0x3e, 0xa8, 0x2d, 0x8d, 0x3e, 0xf7, 0xea, 0xdc, 0x3e, 0x54, 0x49, 0xe7, 0x3d, 0x2b, 0x22, 0xdd, 0xbd, 0xa1, 0xed, 0xe7, 0xbe, 0xc3, 0x88, 0x86, 0x3e, 0xb2, 0x09, 0x90, 0xbe, 0x37, 0x7c, 0x33, 0x3e, 0x86, 0x8f, 0xe9, 0xbb, 0x19, 0x43, 0xee, 0xbd, 0x93, 0x6e, 0xab, 0xbd, 0x5c, 0x79, 0x37, 0xbd, 0xbe, 0x52, 0x97, 0x3e, 0xff, 0xbd, 0x8f, 0xbc, 0x8f, 0xbe, 0x8f, 0xbd, 0x32, 0x29, 0xd3, 0xbd, 0x15, 0x17, 0x60, 0x3d, 0x05, 0xfe, 0x42, 0xbe, 0xd4, 0x72, 0xd3, 0x3d, 0xed, 0x2b, 0x75, 0xbe, 0x64, 0x4c, 0xef, 0x3d, 0x79, 0x7e, 0x32, 0xbe, 0x9c, 0xf8, 0x6e, 0x3e, 0xf3, 0x29, 0x63, 0xbe, 0x4e, 0x03, 0x55, 0x3e, 0x1f, 0xbc, 0x9c, 0x3d, 0xe7, 0x40, 0x39, 0xbd, 0x71, 0x94, 0x91, 0xbe, 0x4a, 0x72, 0xbe, 0xbc, 0xd5, 0x70, 0x2d, 0xbe, 0x93, 0x8a, 0x8e, 0xbd, 0xec, 0x51, 0xbd, 0x3e, 0xfc, 0x5e, 0x79, 0xbd, 0x4a, 0x9c, 0x1b, 0x3e, 0xe6, 0xc3, 0xd9, 0x3e, 0xd7, 0xfd, 0x77, 0xbc, 0x0e, 0x22, 0x4e, 0x3e, 0x8e, 0xc8, 0x7d, 0xbe, 0x89, 0xe0, 0xa6, 0x3e, 0xb7, 0xcc, 0xd0, 0xba, 0x5a, 0xd7, 0x1f, 0x3d, 0xd0, 0xd4, 0x0c, 0xbd, 0x05, 0x50, 0x80, 0x3e, 0xdb, 0x14, 0x0d, 0x3d, 0x4d, 0x49, 0x18, 0x3d, 0x85, 0xf3, 0x8d, 0x3e, 0xdc, 0xb8, 0xa1, 0x3e, 0x3a, 0x3f, 0xf3, 0xbe, 0x62, 0x8d, 0x2e, 0x3d, 0xc3, 0x78, 0xe5, 0x3d, 0x38, 0x2f, 0x8c, 0xbd, 0x0d, 0x2f, 0xbe, 0xbe, 0xee, 0x1a, 0x3f, 0x3d, 0x44, 0x10, 0x8c, 0xbd, 0x2d, 0x33, 0x1f, 0x3d, 0x11, 0x24, 0x67, 0xbe, 0xee, 0x9f, 0xd2, 0xbc, 0xd0, 0xcd, 0x0f, 0xbe, 0x48, 0x5b, 0x90, 0xbe, 0xda, 0x47, 0x9b, 0xbe, 0x87, 0x91, 0xfa, 0x3d, 0x5e, 0xdb, 0x1c, 0xbd, 0xb9, 0x37, 0x86, 0x3e, 0x64, 0xfc, 0x5e, 0x3e, 0x98, 0x07, 0x02, 0x3d, 0xff, 0xc0, 0x44, 0xbd, 0x6f, 0x3f, 0x55, 0x3e, 0xcf, 0xde, 0x4d, 0xbe, 0x21, 0xb1, 0x21, 0xbe, 0x6c, 0xba, 0x46, 0x3e, 0xf4, 0x7b, 0x15, 0x3d, 0xe3, 0x27, 0x82, 0x3e, 0xc8, 0x1e, 0xfa, 0xbc, 0xb2, 0x23, 0xe2, 0xbd, 0xb3, 0x50, 0x13, 0xbe, 0x07, 0x55, 0xdb, 0x3e, 0xc1, 0x35, 0xc6, 0xbe, 0x83, 0x82, 0xa9, 0x3c, 0xfc, 0x3e, 0x21, 0xbd, 0x93, 0x55, 0x66, 0x3e, 0x29, 0x72, 0xb4, 0xbe, 0x8a, 0x50, 0x10, 0x3a, 0x5f, 0xbc, 0x91, 0x3e, 0x22, 0xa4, 0x14, 0xbd, 0xb9, 0xa6, 0xcd, 0x3e, 0xa0, 0xec, 0x02, 0x3e, 0x9a, 0xf9, 0xf2, 0x3d, 0x89, 0x00, 0x65, 0x3d, 0xe2, 0xd8, 0x53, 0x3e, 0x95, 0x3a, 0x80, 0x3d, 0xa7, 0x88, 0x3c, 0x3e, 0xae, 0x27, 0xc5, 0x3e, 0x1e, 0xef, 0x92, 0x3e, 0x61, 0xf8, 0x85, 0x3e, 0x00, 0x5f, 0xf8, 0x3c, 0xc0, 0x90, 0x20, 0x3e, 0x20, 0x14, 0x73, 0xbd, 0x09, 0x33, 0xd1, 0x3e, 0x93, 0x31, 0x85, 0x3d, 0x4a, 0x82, 0x5d, 0xbe, 0x78, 0x00, 0x2b, 0xbd, 0x21, 0x48, 0x78, 0x3e, 0x0c, 0x57, 0xa9, 0x3e, 0x80, 0x63, 0xd1, 0x3d, 0x16, 0xaa, 0x04, 0xbe, 0x51, 0x0f, 0x5d, 0xbc, 0x92, 0x6c, 0x15, 0x3c, 0xe6, 0x1b, 0x60, 0xbe, 0x28, 0x75, 0x16, 0x3e, 0xe4, 0xbd, 0x86, 0xbe, 0x14, 0x9e, 0xfb, 0x3d, 0xf6, 0x68, 0x4e, 0x3e, 0x5b, 0x05, 0x95, 0xbe, 0x75, 0xe3, 0x6f, 0xbe, 0x34, 0x51, 0x47, 0x3c, 0xf2, 0x29, 0x12, 0xbe, 0xa9, 0x5a, 0x89, 0x3e, 0x2c, 0x20, 0xd8, 0x3d, 0x2d, 0x0d, 0x02, 0x3d, 0x49, 0xa2, 0x88, 0xbe, 0x41, 0x7c, 0x03, 0x3d, 0x5c, 0x7f, 0x74, 0x3e, 0x46, 0x50, 0x14, 0xbe, 0xa5, 0xf5, 0x45, 0xbe, 0x67, 0xc1, 0xbf, 0x3e, 0xe1, 0x56, 0x03, 0x3f, 0xfd, 0x75, 0xc6, 0x3e, 0xef, 0xfc, 0x86, 0x3e, 0x9f, 0x7e, 0x10, 0x3e, 0xdf, 0xaf, 0xff, 0xbd, 0xf1, 0x4f, 0xaa, 0x3e, 0xe8, 0x1a, 0xc4, 0xbd, 0x51, 0xb9, 0x8f, 0x3e, 0x86, 0x43, 0x85, 0x3e, 0x95, 0x0e, 0xb4, 0x3e, 0x47, 0x75, 0x46, 0x3e, 0x39, 0x16, 0xc4, 0x3d, 0x32, 0x8d, 0x5d, 0xbe, 0x8e, 0xf8, 0x86, 0x3e, 0x48, 0xef, 0x61, 0xbe, 0x15, 0x0a, 0x46, 0x3e, 0x9b, 0x9f, 0xa3, 0x3e, 0x62, 0x62, 0xfd, 0x3d, 0x22, 0xee, 0xbe, 0x3c, 0x8e, 0x9b, 0x15, 0x3c, 0x59, 0x37, 0x9a, 0x3e, 0x3c, 0x88, 0x31, 0x3c, 0x45, 0x2e, 0xca, 0xbd, 0x9e, 0xf1, 0x46, 0xbd, 0x4a, 0xda, 0x4b, 0xbe, 0x52, 0xb4, 0xb9, 0xbe, 0x6a, 0x5c, 0xf1, 0x3d, 0x28, 0x37, 0x86, 0xbe, 0x64, 0x11, 0x9d, 0xbd, 0xb8, 0x86, 0x82, 0x3e, 0x6f, 0x41, 0xa6, 0xbe, 0xb5, 0x28, 0x9c, 0xbe, 0xd4, 0x62, 0x59, 0xbd, 0xcc, 0xc7, 0x54, 0x3e, 0x5d, 0xfe, 0xe2, 0x3d, 0xf1, 0xb0, 0x99, 0x3e, 0xda, 0x71, 0x50, 0xbd, 0x34, 0x53, 0x8c, 0x3e, 0x14, 0x54, 0x96, 0x3e, 0xdd, 0x9b, 0x21, 0x3c, 0x18, 0xf0, 0x4b, 0xbe, 0xda, 0x4c, 0xea, 0x3d, 0x1e, 0x13, 0x23, 0x3e, 0x44, 0xb2, 0xdf, 0x3e, 0x28, 0xac, 0x2c, 0x3d, 0x42, 0x15, 0x24, 0xbe, 0xa9, 0x59, 0x40, 0x3d, 0x7a, 0xcd, 0x16, 0xbe, 0xb9, 0xa5, 0xa8, 0x3e, 0x48, 0x43, 0x93, 0x3e, 0xd6, 0x9d, 0xc2, 0xbe, 0x1e, 0xd9, 0xa0, 0xbe, 0x92, 0xcd, 0xdd, 0x3d, 0x19, 0xe5, 0x8c, 0x3e, 0x61, 0xec, 0xbb, 0x3e, 0xa0, 0x45, 0x5e, 0xbe, 0xb9, 0xe1, 0x8d, 0xbe, 0x4a, 0xcf, 0xca, 0xbe, 0x64, 0xeb, 0x06, 0x3e, 0x4c, 0x9e, 0x60, 0x3e, 0x1c, 0x8e, 0x09, 0xbf, 0x9a, 0xf7, 0x12, 0xbe, 0x2e, 0x6f, 0x11, 0xbe, 0x6f, 0xaa, 0x39, 0xbe, 0xf0, 0x0a, 0xf6, 0xbd, 0x56, 0xea, 0xca, 0x3d, 0xef, 0xfa, 0x79, 0x3e, 0x20, 0x8b, 0x97, 0x3d, 0x6b, 0x69, 0x01, 0xbe, 0x25, 0x85, 0x31, 0x3e, 0x15, 0x22, 0x49, 0x3d, 0xe6, 0x54, 0xcc, 0xbe, 0x4f, 0xae, 0x62, 0xbe, 0xd3, 0x7a, 0xc3, 0xbd, 0x6d, 0x74, 0x12, 0xbd, 0xd5, 0x13, 0x8f, 0xbe, 0x14, 0xeb, 0x52, 0x3d, 0x59, 0xd9, 0x2e, 0xbe, 0xd9, 0xea, 0xd6, 0xbd, 0xc2, 0xcf, 0x75, 0xbe, 0x2b, 0x78, 0x34, 0xbe, 0xfb, 0xd3, 0xb8, 0xbc, 0xf4, 0xd9, 0x8f, 0x3e, 0xe1, 0xce, 0xa1, 0xbe, 0x47, 0x0d, 0xb8, 0xbe, 0xfe, 0x80, 0x6b, 0x3e, 0xb9, 0x9f, 0xaf, 0x3c, 0x2f, 0xaf, 0xcf, 0x3d, 0xa5, 0x6a, 0xe8, 0x3e, 0xd5, 0x13, 0x0f, 0x3d, 0xd8, 0x6f, 0x30, 0x3e, 0x07, 0xfd, 0x93, 0x3e, 0xc6, 0x5d, 0x8d, 0x3e, 0x00, 0xe8, 0x14, 0x3d, 0x94, 0x66, 0xad, 0x3e, 0x5c, 0x84, 0x22, 0xbd, 0xab, 0x7b, 0x30, 0x3e, 0x02, 0xa3, 0x83, 0x3e, 0xc7, 0x41, 0xd5, 0xbd, 0xd5, 0x95, 0x7c, 0x3e, 0xec, 0x63, 0xe6, 0xbd, 0x75, 0x92, 0x0b, 0x3d, 0xb9, 0xb8, 0xae, 0x3c, 0xfb, 0x7c, 0x2d, 0xbe, 0x34, 0x77, 0x00, 0xbe, 0x4c, 0xa1, 0x1b, 0x3e, 0xb7, 0xa8, 0x0c, 0xbc, 0x78, 0x77, 0xfe, 0xbc, 0x19, 0x42, 0xef, 0x3d, 0x5c, 0x42, 0x11, 0x3e, 0xe2, 0x38, 0x66, 0xbe, 0x59, 0xea, 0x85, 0xbe, 0x72, 0x1e, 0x8d, 0xbe, 0xa7, 0x35, 0x8b, 0xbe, 0x1d, 0x38, 0x42, 0x3d, 0xdd, 0x0e, 0x41, 0xbe, 0xe3, 0x1a, 0xa8, 0xbd, 0x08, 0x9d, 0x8f, 0x3e, 0xf4, 0x6c, 0x31, 0x3d, 0x17, 0xfa, 0x25, 0x3e, 0xf1, 0xdf, 0x86, 0x3e, 0xf6, 0x72, 0xb1, 0xbd, 0xd9, 0x1c, 0x8a, 0xbd, 0xab, 0xd3, 0xa1, 0xbe, 0x2f, 0xb0, 0x13, 0x3e, 0xdd, 0x5a, 0x8c, 0x3d, 0xeb, 0xa9, 0xcb, 0x3d, 0x3d, 0x5f, 0x7e, 0xbe, 0xe2, 0x60, 0x20, 0x3e, 0xc9, 0x8a, 0x45, 0xbe, 0x32, 0x46, 0x82, 0xbd, 0xc2, 0x66, 0x92, 0xbe, 0x78, 0x25, 0x84, 0xbe, 0x11, 0xdb, 0xa4, 0xbe, 0x91, 0xb1, 0x85, 0x3e, 0xb2, 0x70, 0x26, 0x3e, 0x48, 0x3a, 0x0e, 0xbe, 0xa9, 0x87, 0x53, 0x3e, 0xe0, 0x8c, 0x51, 0x3d, 0xe0, 0x23, 0x95, 0x3d, 0xcb, 0x40, 0x4d, 0x3e, 0x19, 0x1a, 0x6f, 0xbe, 0x6b, 0x75, 0xd8, 0xbd, 0x98, 0x2c, 0x24, 0x3e, 0xc7, 0x89, 0x24, 0xbe, 0xca, 0x53, 0x95, 0x3e, 0x38, 0x60, 0x2c, 0xbe, 0xf8, 0xdc, 0x85, 0xbd, 0x79, 0xcb, 0x81, 0x3e, 0x0f, 0x3f, 0x73, 0x3e, 0x1a, 0x15, 0xdf, 0x3d, 0xa2, 0x0f, 0xda, 0xbd, 0xf6, 0x2b, 0x30, 0x3c, 0xc2, 0x81, 0xae, 0xbe, 0x56, 0x6b, 0x35, 0xbe, 0x6d, 0x81, 0x0d, 0xbe, 0x85, 0x94, 0xce, 0xbe, 0x15, 0xbd, 0x7e, 0xbe, 0xac, 0x1e, 0x39, 0x3e, 0xe1, 0xc5, 0xb1, 0xbd, 0xb3, 0x9a, 0x08, 0xbe, 0x7e, 0xf8, 0xda, 0x3d, 0xcd, 0x90, 0xb2, 0xbc, 0xc7, 0xb5, 0x35, 0xbe, 0xc6, 0x63, 0x1d, 0x3e, 0x47, 0xdd, 0x55, 0xbc, 0x82, 0x38, 0xf3, 0x3d, 0xbe, 0x44, 0xee, 0xbe, 0xe1, 0x6b, 0x31, 0x3e, 0xfd, 0xf9, 0x22, 0x3e, 0x53, 0x3a, 0x1d, 0x3e, 0x8b, 0x17, 0x41, 0x3e, 0x76, 0x92, 0xad, 0x3b, 0x37, 0x0f, 0x39, 0x3e, 0x1f, 0x96, 0x5d, 0x3e, 0x5f, 0x74, 0x8f, 0xbe, 0x97, 0x55, 0xd0, 0xbd, 0xfa, 0xc3, 0x84, 0x3a, 0x77, 0x39, 0x67, 0xbe, 0x13, 0x93, 0x84, 0xbd, 0x55, 0x0b, 0xa8, 0x3d, 0xc2, 0xdd, 0x79, 0xbc, 0xdf, 0xd1, 0xe3, 0xbd, 0x64, 0xfe, 0x13, 0x3e, 0x3e, 0x79, 0x35, 0xbe, 0x5d, 0xef, 0xeb, 0x3d, 0x55, 0x46, 0xb7, 0xbe, 0x10, 0x4d, 0x28, 0x3e, 0x3e, 0x71, 0xd0, 0x3e, 0xbb, 0x64, 0xad, 0xbd, 0xfc, 0x07, 0xbd, 0x3d, 0xc9, 0xfd, 0x87, 0x3e, 0xb5, 0x84, 0xd5, 0x3e, 0x6e, 0x18, 0x60, 0x3e, 0x0a, 0x37, 0x68, 0x3d, 0xe4, 0x9b, 0xc4, 0x3e, 0x5b, 0x94, 0x25, 0xbe, 0x88, 0xca, 0xdb, 0xbb, 0x3a, 0x14, 0x1f, 0x3e, 0x98, 0x1d, 0xfe, 0x3c, 0x72, 0xac, 0xa3, 0x3c, 0x1e, 0x55, 0x63, 0x3e, 0xe2, 0x6a, 0xa4, 0xbd, 0x97, 0x65, 0x42, 0x3e, 0x19, 0x31, 0xdc, 0xbe, 0xf8, 0xb6, 0x86, 0x3e, 0x31, 0x9e, 0xed, 0x3e, 0x38, 0x2b, 0x27, 0xbe, 0xb6, 0xdf, 0xff, 0xff, 0x04, 0x00, 0x00, 0x00, 0x00, 0x02, 0x00, 0x00, 0x6f, 0x2d, 0x08, 0xbe, 0xe6, 0xa7, 0xfe, 0x3e, 0xae, 0xfc, 0x7f, 0x3e, 0xe6, 0xd6, 0x8b, 0x3e, 0xe6, 0xc0, 0xd7, 0x3e, 0x2e, 0x20, 0x9f, 0xbe, 0x03, 0x5a, 0xcd, 0xbe, 0x0f, 0x98, 0xf7, 0x3e, 0x68, 0x28, 0x91, 0x3e, 0x78, 0x8f, 0xb1, 0x3e, 0x74, 0x5f, 0x7e, 0xbe, 0x71, 0x0a, 0x1e, 0x3d, 0xe8, 0xeb, 0xce, 0x3e, 0xb6, 0xf6, 0xc6, 0x3e, 0xfa, 0x6b, 0x6e, 0xbe, 0x3a, 0x24, 0x8e, 0x3d, 0xa7, 0xac, 0x05, 0xbf, 0x9d, 0x50, 0xc0, 0xbe, 0x24, 0x7d, 0x95, 0xbd, 0x28, 0xcf, 0x0a, 0x3e, 0x42, 0x67, 0x63, 0xbe, 0x0c, 0xec, 0x8a, 0xbe, 0x7d, 0x82, 0xfa, 0x3e, 0x4e, 0x15, 0x8b, 0x3e, 0x3c, 0x59, 0xf1, 0x3d, 0x0a, 0x50, 0xbd, 0x3e, 0xa7, 0xf8, 0x9b, 0x3c, 0x99, 0x43, 0xed, 0xbe, 0x83, 0x6e, 0xb7, 0xbe, 0x57, 0x98, 0xd8, 0xbe, 0xd6, 0xd5, 0xc1, 0x3d, 0x25, 0xb7, 0xec, 0x3e, 0x85, 0x40, 0xb4, 0xbd, 0x2b, 0x1d, 0x14, 0x3d, 0x1e, 0xbd, 0x45, 0x3e, 0x46, 0xf1, 0xbf, 0xbe, 0x9a, 0x85, 0xae, 0xbe, 0xba, 0xc8, 0x2e, 0xbe, 0xc2, 0xbf, 0x8f, 0x3e, 0xe3, 0xa3, 0xbc, 0x3e, 0x58, 0x81, 0x2e, 0xbf, 0x75, 0xdb, 0x42, 0x3e, 0x9e, 0x35, 0xbd, 0xbd, 0x8c, 0xc6, 0x17, 0xbe, 0x5e, 0x06, 0x3c, 0xbe, 0x6e, 0x01, 0x37, 0xbf, 0x0e, 0x04, 0xac, 0xbe, 0x5b, 0x6f, 0xc4, 0x3b, 0x22, 0xb9, 0xba, 0x3e, 0x31, 0x16, 0x9a, 0x3e, 0x22, 0xa5, 0xb7, 0xbe, 0x81, 0x69, 0x8a, 0x3e, 0x82, 0xa6, 0x03, 0x3f, 0x94, 0x3c, 0x14, 0x3e, 0x6a, 0x97, 0x79, 0xbe, 0xc0, 0x60, 0x84, 0x3e, 0x6f, 0x88, 0x79, 0xbe, 0x1f, 0xf5, 0xaf, 0xbe, 0x98, 0x35, 0xb3, 0x3e, 0x19, 0xca, 0xdd, 0x3e, 0x68, 0xf5, 0x03, 0xbe, 0x19, 0xda, 0x4b, 0x3e, 0x2e, 0x99, 0xe7, 0x3e, 0x3a, 0xa9, 0xe9, 0xbe, 0x40, 0x6b, 0x1d, 0xbf, 0x09, 0x17, 0x4f, 0xbe, 0x46, 0x52, 0xb5, 0xbe, 0xe0, 0x3e, 0xb1, 0x3e, 0x4f, 0xb5, 0xa1, 0xbe, 0xe3, 0x89, 0xf0, 0xbe, 0xfb, 0xb3, 0xa0, 0x3e, 0x4d, 0x76, 0x03, 0xbe, 0xb9, 0x80, 0x8b, 0x3e, 0xee, 0xf9, 0x47, 0xbd, 0x98, 0x76, 0xce, 0xbd, 0xc1, 0xda, 0xe2, 0x3e, 0x8b, 0x45, 0x9f, 0xbe, 0x4e, 0xaf, 0x1d, 0x3e, 0x6b, 0xcd, 0xd8, 0x3e, 0x3a, 0x46, 0x03, 0xbe, 0x01, 0x63, 0x37, 0xbf, 0x1e, 0xe2, 0x0e, 0xbf, 0xde, 0x42, 0x9e, 0xbe, 0xbb, 0x42, 0x01, 0x3e, 0x42, 0x7f, 0x4a, 0xbe, 0x69, 0x43, 0xb7, 0x3e, 0xc2, 0x71, 0x29, 0xbe, 0x23, 0xeb, 0xd8, 0xbd, 0x94, 0x26, 0xc9, 0x3e, 0x35, 0x03, 0xd6, 0x3e, 0xb9, 0xf4, 0x06, 0xbf, 0x97, 0xfb, 0x3a, 0xbe, 0xc4, 0x33, 0xc9, 0x3e, 0x24, 0x5a, 0x42, 0x3e, 0xa9, 0xa2, 0x82, 0xbd, 0x3f, 0x70, 0x7c, 0x3e, 0x76, 0xb7, 0x85, 0x3c, 0x83, 0x53, 0x7f, 0x3e, 0xb2, 0x8b, 0xb3, 0x3e, 0xe5, 0xb2, 0x4b, 0xbe, 0x60, 0x46, 0x11, 0x3e, 0x0d, 0x52, 0x61, 0x3e, 0x93, 0x71, 0x69, 0xbe, 0x63, 0x23, 0x56, 0xbd, 0x52, 0x1e, 0x84, 0x3e, 0x74, 0x71, 0x10, 0xbf, 0x2b, 0xc3, 0x6d, 0x3e, 0x0c, 0x87, 0x85, 0xbe, 0xfa, 0xaa, 0xee, 0xbc, 0xe8, 0x69, 0x33, 0x3e, 0xe1, 0x27, 0x41, 0xbe, 0xf4, 0x34, 0x8f, 0x3e, 0x5b, 0x85, 0xb1, 0x3e, 0x81, 0x9a, 0xcf, 0x3e, 0xfc, 0xa9, 0x6b, 0x3e, 0x27, 0x6d, 0xf9, 0xbe, 0x88, 0xfc, 0x52, 0xbe, 0x51, 0xf6, 0x84, 0xbe, 0x29, 0x58, 0x94, 0xbd, 0x08, 0x8d, 0x13, 0xbf, 0x88, 0x61, 0x24, 0xbe, 0xf2, 0x5a, 0xad, 0xbe, 0xa6, 0x1e, 0xab, 0x3e, 0x20, 0xd4, 0x13, 0xbf, 0x2a, 0x7b, 0x8c, 0xbe, 0xa1, 0x41, 0x3c, 0xbe, 0xd5, 0x04, 0xf9, 0xbe, 0xd0, 0x52, 0x80, 0x3d, 0xc2, 0xe1, 0xff, 0xff, 0x04, 0x00, 0x00, 0x00, 0x80, 0x04, 0x00, 0x00, 0x4b, 0xcf, 0x62, 0xbd, 0x81, 0x41, 0xc7, 0x3e, 0x2c, 0xf5, 0x8e, 0xbe, 0x94, 0x34, 0x48, 0xbe, 0x3b, 0xf6, 0xf6, 0x3e, 0x8a, 0x4b, 0x9b, 0x3d, 0xfc, 0x89, 0x06, 0x3d, 0x71, 0xc3, 0x81, 0x3e, 0xc7, 0xfc, 0x36, 0xbd, 0x40, 0x49, 0x1d, 0x3e, 0xfe, 0x46, 0xcc, 0xbb, 0x36, 0x96, 0xf8, 0x3d, 0x1b, 0x90, 0x9a, 0xbe, 0x61, 0x93, 0x87, 0x3e, 0xd0, 0x94, 0x78, 0xbe, 0xef, 0xd1, 0x13, 0xbd, 0xff, 0x2f, 0x08, 0x3f, 0x46, 0x41, 0xce, 0x3d, 0x4b, 0x64, 0x8d, 0x3e, 0x09, 0x14, 0x36, 0x3e, 0x91, 0x02, 0x3c, 0xbe, 0xef, 0x44, 0x9e, 0xbe, 0x70, 0x8a, 0xa3, 0xbe, 0xe9, 0x9a, 0xb9, 0xbe, 0x77, 0x31, 0x59, 0xbe, 0xbb, 0xd3, 0x8c, 0x3d, 0x8a, 0x0e, 0x98, 0x3e, 0xa1, 0xff, 0x99, 0x3c, 0x41, 0x6f, 0xaa, 0x3e, 0x50, 0x6a, 0xea, 0xbd, 0xdc, 0x21, 0xaa, 0x3e, 0x1a, 0x69, 0x96, 0x3e, 0xab, 0x0e, 0xa6, 0x3d, 0xe3, 0xe6, 0xc3, 0xbe, 0x30, 0xce, 0xa9, 0xbd, 0x9e, 0x59, 0xd2, 0xbe, 0x2f, 0xe6, 0xa1, 0x3e, 0x7c, 0x29, 0x81, 0xbe, 0xda, 0xcf, 0x72, 0xbd, 0x67, 0x71, 0xae, 0xbd, 0x3a, 0x33, 0x82, 0xbe, 0x0e, 0x9c, 0x10, 0xbe, 0xda, 0x82, 0x91, 0x3e, 0xe2, 0x2f, 0x2b, 0xbe, 0xc9, 0x49, 0xdd, 0xbd, 0x9c, 0x49, 0x29, 0x3e, 0x0f, 0x3c, 0xa6, 0xbe, 0x07, 0xa2, 0x81, 0xbe, 0x42, 0x18, 0x92, 0xbd, 0xbb, 0x01, 0x98, 0xbe, 0xa0, 0x23, 0xe7, 0x3d, 0x5c, 0xba, 0xd1, 0xbe, 0x4b, 0x5e, 0xe4, 0x3d, 0x71, 0x2d, 0x8d, 0x3e, 0x26, 0xdb, 0xdc, 0xbd, 0x58, 0x5e, 0x42, 0xbe, 0xe3, 0x98, 0x6c, 0x3e, 0x58, 0xda, 0x6c, 0xbc, 0x78, 0x26, 0xef, 0xbc, 0x4d, 0x39, 0x3d, 0xbe, 0xf2, 0x94, 0x39, 0xbe, 0x9c, 0xd3, 0x38, 0x3e, 0x23, 0x19, 0x9b, 0xbd, 0x4f, 0x88, 0xdb, 0xbd, 0xb7, 0xd5, 0xa3, 0x3e, 0x49, 0x7a, 0xeb, 0xbc, 0xcb, 0xc6, 0x1f, 0xbe, 0xeb, 0xbb, 0xdb, 0xbd, 0xf8, 0x5b, 0xc5, 0x3d, 0xa1, 0x9c, 0x06, 0xbe, 0xc8, 0x40, 0xc3, 0x3e, 0x54, 0x28, 0xa4, 0xbe, 0x7d, 0xb4, 0x94, 0xbd, 0x5b, 0xb5, 0x3b, 0xbe, 0x0d, 0x6a, 0xb7, 0xbe, 0x83, 0xfa, 0x8c, 0xbe, 0x2d, 0xe6, 0x2e, 0x3e, 0x93, 0x87, 0x4c, 0x3d, 0xce, 0x88, 0x88, 0xbe, 0xa2, 0x8d, 0xb2, 0xbe, 0x5c, 0xeb, 0xae, 0xbd, 0xc8, 0x50, 0x5c, 0xbd, 0xba, 0xd9, 0x9a, 0xbe, 0x64, 0xf5, 0xb2, 0x3e, 0xcf, 0x47, 0x03, 0xbd, 0x1a, 0x9c, 0x7a, 0x3d, 0x4c, 0xb1, 0x8d, 0xbe, 0x9a, 0xdf, 0x96, 0xbe, 0xf9, 0xa4, 0x48, 0x3e, 0xf7, 0xc1, 0xaf, 0x3e, 0x41, 0x29, 0x4a, 0x3e, 0x67, 0xe4, 0xb1, 0xbd, 0xc1, 0x07, 0x1b, 0x3d, 0xe6, 0x5b, 0xf4, 0xbd, 0xb9, 0x4c, 0xf2, 0xbe, 0x2a, 0xdc, 0x7d, 0xbe, 0x25, 0xe8, 0x50, 0x3e, 0xc6, 0x5c, 0x93, 0xbc, 0x97, 0x48, 0xd2, 0xbe, 0x88, 0xd7, 0x31, 0xbd, 0xcd, 0x9f, 0x0a, 0xbf, 0xd7, 0xc2, 0x98, 0xbe, 0xf1, 0x46, 0x00, 0xbe, 0x20, 0x76, 0x1f, 0x3e, 0xcf, 0xa3, 0x75, 0xbe, 0x57, 0xa2, 0xcc, 0x3d, 0x11, 0x5a, 0x3b, 0xbe, 0x0e, 0x7d, 0x84, 0x3d, 0x96, 0x5e, 0x87, 0x3e, 0x8b, 0x51, 0x80, 0xbe, 0x3c, 0x74, 0x4b, 0x3e, 0x3c, 0xcf, 0x0b, 0xbe, 0x9f, 0xa8, 0x01, 0xbb, 0x12, 0x21, 0x6f, 0xbe, 0xd9, 0x73, 0xde, 0xbd, 0x76, 0x38, 0x4d, 0xbe, 0x0b, 0xda, 0xa0, 0x3e, 0x45, 0x03, 0x85, 0x3e, 0xd0, 0x32, 0x8c, 0x3c, 0xe5, 0x89, 0x04, 0xbe, 0x18, 0x44, 0x5d, 0x3b, 0x23, 0x5e, 0x44, 0xbe, 0xd1, 0xf8, 0x43, 0xbe, 0xca, 0xb4, 0x19, 0x3e, 0x2f, 0x6e, 0x93, 0x3d, 0x9f, 0x89, 0x7d, 0xbd, 0xd8, 0xc8, 0x8b, 0xbe, 0xed, 0x7b, 0x68, 0x3e, 0x1c, 0x94, 0x01, 0x3e, 0xea, 0x19, 0x0a, 0xbf, 0x1c, 0x5c, 0x85, 0x3e, 0x7c, 0x49, 0x1b, 0x3e, 0xbe, 0x00, 0xbd, 0xbe, 0xad, 0xc5, 0x5d, 0xbe, 0x0c, 0x60, 0x77, 0xbd, 0xdb, 0x06, 0xea, 0xbe, 0x97, 0x81, 0xbb, 0x3e, 0x3c, 0xf5, 0xbd, 0x3e, 0xdc, 0xe8, 0xbc, 0xbe, 0x18, 0xf1, 0xc1, 0x3d, 0x9e, 0x0b, 0xa5, 0x3d, 0x39, 0xf1, 0x99, 0xbc, 0xbe, 0xfe, 0xd5, 0x3e, 0xbb, 0xc0, 0xe0, 0xbd, 0x3a, 0x96, 0xb9, 0x3e, 0x8d, 0xe7, 0x1a, 0x3e, 0x7a, 0x68, 0xbd, 0xbe, 0x4d, 0xc5, 0x25, 0x3e, 0x17, 0x9c, 0x6c, 0x3e, 0x14, 0x91, 0x8f, 0xbe, 0x4a, 0x9e, 0x9e, 0x3e, 0x25, 0x7d, 0x0b, 0xbe, 0x81, 0x41, 0xcd, 0xbd, 0xb8, 0x01, 0x3b, 0xbe, 0x31, 0xdb, 0x05, 0xbe, 0xb2, 0xf8, 0xf3, 0xbd, 0x18, 0x75, 0xac, 0x3e, 0x2e, 0x80, 0x0a, 0xbe, 0x44, 0x48, 0x91, 0xbe, 0xf8, 0x01, 0x2e, 0xbe, 0xe1, 0xb3, 0x96, 0x3e, 0x70, 0x2d, 0x18, 0x3e, 0xe1, 0xe9, 0x95, 0xbe, 0x4c, 0x34, 0x34, 0xbd, 0xfc, 0x34, 0xa0, 0xbe, 0xa0, 0x97, 0xdd, 0x3e, 0xab, 0xc5, 0xef, 0x3e, 0x85, 0x4a, 0xab, 0xbd, 0xa0, 0x14, 0xcf, 0xbd, 0x08, 0x9c, 0x16, 0xbd, 0x73, 0xb0, 0x9a, 0xbe, 0x4f, 0x10, 0xed, 0xbb, 0x9e, 0x57, 0xcd, 0x3e, 0x7e, 0x47, 0x96, 0x3e, 0x85, 0xe5, 0x39, 0xbc, 0x3a, 0xb3, 0x32, 0x3e, 0x87, 0xa7, 0x27, 0x3e, 0x56, 0xbc, 0x10, 0x3e, 0x25, 0x62, 0x9c, 0x3e, 0x06, 0x9f, 0x20, 0x3e, 0x93, 0x89, 0x92, 0x3c, 0xe1, 0x3b, 0x97, 0xbe, 0x6a, 0xe0, 0x2a, 0x3e, 0xbc, 0x96, 0x26, 0xbe, 0x40, 0x44, 0xca, 0x3e, 0xfb, 0x10, 0xf6, 0x3d, 0xe0, 0x83, 0xab, 0xbd, 0xa7, 0x29, 0xf6, 0xbd, 0xb1, 0x3a, 0x9f, 0xbe, 0xfe, 0x8c, 0x81, 0x3e, 0xc4, 0x87, 0xa4, 0x3e, 0x0f, 0xba, 0xcd, 0x3d, 0xda, 0x92, 0x23, 0x3e, 0xda, 0x04, 0x52, 0x3d, 0x1c, 0x74, 0xba, 0xbe, 0xda, 0x27, 0xd6, 0xbd, 0xfe, 0x88, 0xc1, 0x3e, 0xbb, 0x11, 0x5e, 0xbe, 0xe7, 0x24, 0x00, 0x3e, 0xeb, 0x1f, 0xc9, 0x3e, 0x97, 0xd3, 0x68, 0x3e, 0xb0, 0x0b, 0xae, 0xbe, 0xbc, 0xc1, 0x52, 0x3e, 0x71, 0x83, 0xcc, 0xbe, 0xe1, 0xc7, 0x44, 0x3e, 0xf4, 0xd2, 0xf8, 0xbd, 0x5c, 0x93, 0x55, 0x3d, 0x03, 0xcd, 0x4b, 0xbe, 0xa2, 0xcf, 0x1b, 0xbe, 0xa8, 0x86, 0x20, 0xbe, 0x81, 0x84, 0x2b, 0x3e, 0x8d, 0x66, 0x94, 0x3e, 0x3c, 0x29, 0xee, 0x3d, 0x56, 0xc8, 0x95, 0xbe, 0xff, 0xfa, 0x4f, 0xbd, 0x05, 0x9c, 0x28, 0xbe, 0xb2, 0xf5, 0x17, 0xbe, 0x5d, 0x47, 0xe2, 0xbc, 0x0e, 0xb6, 0xec, 0xbc, 0x08, 0xb6, 0xb3, 0x3e, 0xbe, 0x93, 0x1e, 0xbe, 0x4e, 0x81, 0x66, 0xbe, 0x70, 0xf0, 0xc2, 0xbd, 0xd1, 0x94, 0x0a, 0x3d, 0xb1, 0x4f, 0xa7, 0xbe, 0x84, 0xfc, 0x41, 0x3d, 0x75, 0x31, 0xc5, 0xbe, 0x76, 0x67, 0xa2, 0xbe, 0x08, 0x91, 0x77, 0xbe, 0x00, 0x69, 0x8e, 0x3e, 0xe6, 0x27, 0xc8, 0x3a, 0xe1, 0x66, 0x0f, 0xbe, 0x92, 0x0c, 0x94, 0xbe, 0x62, 0xfc, 0x2e, 0x3e, 0x8f, 0x3b, 0x8a, 0x3e, 0x27, 0xfe, 0x4e, 0x3d, 0x43, 0x33, 0x91, 0xbe, 0xc0, 0xd8, 0x7d, 0xbd, 0x8f, 0xfa, 0x74, 0x3e, 0xcd, 0x34, 0xc0, 0x3d, 0x93, 0x14, 0x8d, 0x3e, 0x9d, 0x03, 0x97, 0xbb, 0x59, 0xd3, 0x4d, 0xbe, 0xb9, 0x17, 0x15, 0xbe, 0xa5, 0x95, 0xc3, 0x3c, 0xe2, 0x20, 0x54, 0xbe, 0x6c, 0x7d, 0x2c, 0x3e, 0xe5, 0x64, 0x71, 0xbe, 0xe9, 0x57, 0x9e, 0xbe, 0xbb, 0xf0, 0x4f, 0x3e, 0x65, 0x53, 0xb9, 0x3e, 0x68, 0xde, 0xea, 0xbc, 0xd0, 0xcf, 0x26, 0xbe, 0xbc, 0xed, 0x8c, 0xbe, 0x89, 0xae, 0xb6, 0xbe, 0xa7, 0x67, 0x0b, 0xbe, 0x16, 0x18, 0xfd, 0x3d, 0xfa, 0x25, 0x65, 0xbe, 0xab, 0x32, 0x3c, 0xbe, 0x97, 0x31, 0x77, 0xbc, 0xbd, 0x8e, 0x6f, 0xbe, 0x5c, 0xb5, 0x6b, 0xbd, 0xb1, 0xd2, 0x0b, 0xbe, 0xb1, 0x03, 0x0c, 0x3e, 0xba, 0x94, 0x8c, 0x3e, 0x55, 0xfc, 0x89, 0xbe, 0x6a, 0x23, 0x85, 0xbe, 0x2c, 0x22, 0xb8, 0x3e, 0x8d, 0x6b, 0xe8, 0xbd, 0x4a, 0x94, 0xf3, 0x3a, 0x26, 0xc6, 0x84, 0x3c, 0x1d, 0xf7, 0x95, 0xbe, 0x3d, 0x72, 0x24, 0xbe, 0xd9, 0x94, 0x0a, 0x3e, 0x95, 0xf6, 0xbc, 0xbe, 0x7c, 0x30, 0xdb, 0xbd, 0x36, 0x0f, 0xbe, 0x3d, 0x7e, 0xaf, 0xc9, 0x3d, 0xf3, 0xd9, 0x97, 0x3e, 0xd3, 0xd6, 0x1a, 0xbe, 0x31, 0x30, 0x0a, 0xbe, 0xf6, 0xb4, 0xee, 0xbd, 0x4e, 0x91, 0x63, 0x3e, 0xcd, 0x53, 0xbd, 0xbe, 0x78, 0xea, 0x1b, 0x3e, 0xd9, 0x06, 0x19, 0x3d, 0x74, 0x69, 0xe4, 0xbd, 0x65, 0xb5, 0x7a, 0xbe, 0x4e, 0xe6, 0xff, 0xff, 0x04, 0x00, 0x00, 0x00, 0x00, 0x18, 0x00, 0x00, 0xff, 0xc5, 0xa5, 0xbd, 0x56, 0x7c, 0x86, 0xbe, 0xe4, 0xfe, 0x48, 0xbe, 0xcf, 0x00, 0xc1, 0xbd, 0x28, 0x95, 0x0a, 0xbe, 0xf7, 0x4a, 0xf9, 0xbd, 0x21, 0xb9, 0xf4, 0xbd, 0xe0, 0x77, 0xce, 0x3d, 0xe9, 0x29, 0x85, 0x3e, 0x80, 0xd3, 0x8d, 0x3d, 0x56, 0x4f, 0xfe, 0x3d, 0xc6, 0x19, 0xdb, 0x3a, 0xf7, 0xbc, 0xe0, 0x3c, 0xe9, 0xee, 0x16, 0x3d, 0xde, 0x97, 0x68, 0x3e, 0x5c, 0x08, 0x8c, 0xbe, 0xa2, 0x24, 0xdf, 0xbd, 0xe7, 0xe8, 0x96, 0xbe, 0x66, 0x75, 0x89, 0xbd, 0x05, 0x9b, 0x80, 0x3e, 0xc4, 0x8d, 0xc3, 0x3c, 0x6a, 0x68, 0x42, 0x3d, 0x2d, 0x7c, 0x46, 0xbd, 0xa4, 0x96, 0x43, 0x3e, 0x1f, 0x7f, 0xd0, 0xbd, 0xb0, 0x3c, 0xd6, 0x3d, 0xc6, 0xd9, 0x1a, 0x3e, 0xef, 0x60, 0x9c, 0xbe, 0xf3, 0xf0, 0x97, 0x3e, 0xe6, 0xe1, 0x63, 0x3d, 0x78, 0x69, 0x4b, 0xbd, 0xcf, 0xde, 0xb6, 0x3d, 0xe7, 0x43, 0x68, 0xbc, 0xa3, 0x71, 0xcd, 0xbc, 0xd5, 0xd7, 0x4c, 0x3b, 0x9d, 0x09, 0x03, 0xbe, 0x61, 0x37, 0x66, 0x3e, 0x6e, 0xaa, 0x72, 0x3e, 0xbc, 0x5f, 0x97, 0x3d, 0xdd, 0x94, 0x4b, 0xbd, 0x3f, 0x66, 0x45, 0x3e, 0xd2, 0xe0, 0xf1, 0x3c, 0xe8, 0x07, 0x80, 0x3e, 0x8a, 0x0f, 0xb6, 0xbe, 0x03, 0xdb, 0x45, 0xbd, 0x08, 0xb7, 0x44, 0x3e, 0xc3, 0xd3, 0x91, 0x3e, 0x1d, 0x58, 0x6b, 0xbe, 0x99, 0xfb, 0x81, 0x3e, 0x04, 0x1f, 0x4d, 0xbe, 0x3d, 0xf1, 0x28, 0x3e, 0x01, 0xc7, 0xf0, 0x3d, 0xec, 0x2d, 0xfe, 0x3d, 0x00, 0x6e, 0x1f, 0x3c, 0x7b, 0xd9, 0x3f, 0x3d, 0xc3, 0x89, 0xd4, 0x3d, 0x4a, 0xf9, 0x71, 0xbe, 0x1e, 0x51, 0xd5, 0x3c, 0xbe, 0xbe, 0x5d, 0x3e, 0xbd, 0x55, 0xba, 0xbe, 0x6e, 0x86, 0xdc, 0xbc, 0x3d, 0xa7, 0x36, 0xbe, 0x5c, 0xeb, 0x34, 0xbe, 0xb4, 0x00, 0x76, 0xbd, 0x4d, 0xa8, 0xa3, 0x3e, 0x75, 0x8d, 0xdb, 0xbc, 0xe6, 0x76, 0x27, 0xbd, 0x35, 0xe5, 0xd3, 0xbc, 0xe2, 0x50, 0x30, 0xbd, 0xee, 0xbb, 0xc3, 0x3d, 0x61, 0x23, 0xa9, 0x3d, 0x4a, 0x47, 0x86, 0x3e, 0xaf, 0x19, 0x84, 0xbe, 0x32, 0xaf, 0x7c, 0x3e, 0xd9, 0xf8, 0xe0, 0x3d, 0x2e, 0x9e, 0x9c, 0xbd, 0x03, 0x2e, 0x28, 0x3e, 0x71, 0x5f, 0x2e, 0xbe, 0xa0, 0x61, 0x2d, 0xbe, 0xb8, 0xec, 0x96, 0x3d, 0x4f, 0x45, 0x23, 0x3e, 0x8c, 0x17, 0xc9, 0xbd, 0x9e, 0xcd, 0x0d, 0x3e, 0xc0, 0xe7, 0x51, 0x3e, 0xaf, 0x5b, 0x56, 0xbe, 0xcb, 0x17, 0xb2, 0x3d, 0x9c, 0x76, 0x70, 0x3e, 0x4d, 0xa8, 0xc7, 0x3d, 0x1d, 0x15, 0x8e, 0xbd, 0x6b, 0x97, 0xf1, 0x3d, 0xae, 0xe0, 0x01, 0x3e, 0x1c, 0x71, 0xc1, 0xbe, 0x76, 0xf4, 0xd5, 0xbc, 0x3c, 0xe7, 0x28, 0xbe, 0x55, 0x25, 0x44, 0x3d, 0x56, 0xa5, 0x49, 0x39, 0x22, 0xcf, 0x72, 0xbe, 0x5d, 0xe5, 0x1a, 0xbe, 0x37, 0x02, 0x35, 0xbd, 0xe8, 0x96, 0x95, 0xbd, 0x7a, 0xfc, 0xa3, 0x3d, 0x3a, 0xfa, 0x34, 0x3e, 0x5f, 0x44, 0x64, 0xbd, 0xa8, 0x4a, 0x93, 0x3d, 0x70, 0x9d, 0x10, 0x3e, 0xd1, 0x1d, 0xcd, 0x3d, 0x77, 0x9f, 0x6b, 0xbe, 0xf3, 0x95, 0xea, 0x3a, 0xdd, 0x02, 0x06, 0xbc, 0xb3, 0x2e, 0x36, 0x3d, 0x8b, 0xd5, 0x2b, 0x3e, 0xc6, 0xd2, 0x54, 0xbd, 0x67, 0xf7, 0xd7, 0x3c, 0xea, 0x73, 0x5e, 0xbe, 0x14, 0x3a, 0xd6, 0xbd, 0x74, 0x46, 0xb1, 0xbc, 0x0e, 0x0b, 0x63, 0x3e, 0xf8, 0x11, 0xab, 0x3d, 0x20, 0x5d, 0xd3, 0x3c, 0x52, 0x6f, 0x30, 0x3e, 0xe7, 0x1a, 0x65, 0xbd, 0x13, 0xf9, 0x1d, 0xbe, 0xdb, 0x4f, 0xfe, 0x3d, 0x68, 0xc0, 0x2d, 0xbe, 0x23, 0x68, 0x99, 0xbd, 0x67, 0x3f, 0x37, 0xbd, 0xd0, 0x9a, 0xc6, 0x3d, 0x95, 0xf2, 0x7d, 0xbd, 0x5a, 0x7c, 0x4a, 0xbe, 0xb2, 0xbb, 0xe6, 0xbd, 0xfd, 0x7a, 0xed, 0x3c, 0x14, 0x4e, 0x32, 0xbe, 0x0d, 0xd1, 0x96, 0x3d, 0x8b, 0x11, 0xd3, 0x3d, 0xeb, 0xcd, 0x00, 0xbd, 0x32, 0xe8, 0xb1, 0xbc, 0x61, 0x50, 0x93, 0x3d, 0xe7, 0xdb, 0xda, 0x3d, 0x2c, 0x21, 0x2b, 0xbe, 0xb7, 0xaf, 0x95, 0xbe, 0xc8, 0xec, 0x17, 0xbd, 0xc5, 0x8b, 0x18, 0xbe, 0x2a, 0xb9, 0x21, 0x3e, 0xfa, 0xe9, 0x99, 0x3d, 0x3c, 0x2e, 0xee, 0xbc, 0xd0, 0xf4, 0x45, 0xbe, 0xf9, 0x39, 0x1a, 0x3e, 0x20, 0xe1, 0x17, 0xbe, 0xf3, 0xf9, 0x22, 0x3e, 0xdf, 0x57, 0x1b, 0x3e, 0x62, 0x72, 0xc5, 0xba, 0xd0, 0xf2, 0x66, 0x3c, 0x7f, 0x51, 0xd6, 0x3d, 0x45, 0x29, 0x23, 0xbe, 0x26, 0x8b, 0xdb, 0x3d, 0x93, 0x9d, 0xc8, 0xbd, 0x83, 0xcd, 0x16, 0x3e, 0x39, 0x59, 0xd0, 0x3c, 0xbc, 0x64, 0x1a, 0x3d, 0x84, 0x80, 0xbf, 0xbc, 0xd7, 0x11, 0x95, 0xbd, 0xe9, 0x3b, 0x73, 0xbb, 0xd4, 0x44, 0x84, 0xbd, 0x3a, 0xc8, 0x06, 0xbe, 0x0c, 0x6d, 0x04, 0x3e, 0xff, 0x10, 0xe2, 0x3d, 0xf8, 0xc2, 0x71, 0xbc, 0x61, 0xfd, 0xae, 0xbb, 0x2e, 0xa4, 0x13, 0x3e, 0xa3, 0xee, 0x38, 0xbb, 0x56, 0xd6, 0x1a, 0x3e, 0xfa, 0xd8, 0x28, 0xbe, 0x0e, 0x9f, 0x42, 0x3e, 0xe8, 0xb3, 0x96, 0xbd, 0x5b, 0x5a, 0x06, 0x3d, 0x62, 0x49, 0x80, 0xbe, 0x10, 0xed, 0x5a, 0xbd, 0xe5, 0x0d, 0x05, 0xbe, 0xeb, 0x0f, 0x07, 0xbe, 0xac, 0xd7, 0x50, 0x3d, 0x22, 0x67, 0x5f, 0xbd, 0xbc, 0xbb, 0x20, 0x3e, 0x52, 0x7f, 0xaf, 0x3d, 0x27, 0x81, 0xbe, 0xbd, 0x9c, 0x52, 0x33, 0x3e, 0xd0, 0x23, 0xec, 0xbc, 0xe9, 0xe3, 0xa0, 0xbd, 0xfc, 0x26, 0x99, 0x3a, 0x25, 0x5d, 0x83, 0x3e, 0x27, 0x47, 0x4f, 0x3e, 0x5d, 0xa3, 0x03, 0x3e, 0x06, 0xc2, 0x9d, 0xbe, 0xa8, 0xee, 0xf0, 0xbd, 0x8f, 0x77, 0x1c, 0xbe, 0xb0, 0x5e, 0xc2, 0x3d, 0x1c, 0x7f, 0x6e, 0x3d, 0x01, 0xce, 0x95, 0x3d, 0x81, 0x43, 0x2a, 0xbd, 0x9e, 0xc1, 0x3e, 0x3d, 0x34, 0x2e, 0x40, 0x3e, 0xca, 0xcc, 0x25, 0x3e, 0x24, 0xd5, 0x9b, 0x3d, 0xf2, 0x0a, 0xeb, 0x3d, 0x31, 0x34, 0x96, 0xbc, 0xc8, 0xab, 0x82, 0x3e, 0x45, 0xea, 0x4b, 0x3e, 0x7e, 0x85, 0xda, 0x3a, 0xaf, 0x45, 0xe0, 0x3d, 0x8f, 0x2f, 0xe6, 0x3d, 0x7d, 0x0f, 0x23, 0xbe, 0xbf, 0xa6, 0x25, 0x3e, 0xb4, 0xfd, 0xb7, 0x3a, 0x07, 0xc2, 0xa8, 0xbd, 0x47, 0x80, 0xba, 0xbd, 0xf6, 0xe6, 0xb1, 0xbd, 0x7f, 0x6b, 0x2a, 0xbe, 0xb8, 0xda, 0x96, 0x3e, 0x3d, 0xe7, 0x3d, 0x3e, 0xdb, 0x34, 0x5a, 0x3e, 0x58, 0x02, 0x6c, 0x3d, 0x0c, 0x69, 0x5d, 0x3e, 0x2a, 0xfa, 0x6b, 0x3e, 0x39, 0x75, 0xdf, 0x3d, 0xdd, 0x30, 0x30, 0x3e, 0x90, 0x73, 0x2e, 0x3e, 0x3a, 0x22, 0x80, 0xbe, 0xb4, 0x51, 0x04, 0x3e, 0x15, 0xc5, 0x60, 0x3c, 0x4e, 0xa8, 0x25, 0x3e, 0xe7, 0x17, 0xb4, 0x3d, 0x12, 0x9c, 0xc6, 0x3d, 0x4a, 0xf0, 0xfc, 0x3a, 0x7e, 0x17, 0x80, 0xbd, 0x10, 0x46, 0xb6, 0x3d, 0x20, 0x6d, 0x9e, 0x3d, 0xbb, 0x4d, 0x7e, 0xbd, 0x30, 0x7f, 0x52, 0x3e, 0xb1, 0xcf, 0xa3, 0x3e, 0x26, 0x19, 0xe3, 0x3d, 0x7b, 0xef, 0x2d, 0x3d, 0x4a, 0x7e, 0x38, 0x3e, 0xc7, 0xac, 0x77, 0x3e, 0xcf, 0xe2, 0xab, 0xbd, 0xa8, 0x35, 0xd1, 0xbc, 0xe7, 0x6b, 0xf1, 0xbd, 0x9f, 0xa8, 0x6c, 0xbd, 0x3e, 0xee, 0x58, 0x3e, 0x8b, 0x2f, 0xe0, 0xbd, 0x1a, 0xf2, 0xab, 0xbd, 0x53, 0x5e, 0x9a, 0xbd, 0xc6, 0xcf, 0xf4, 0xbd, 0x77, 0xe6, 0x11, 0xbd, 0x70, 0xab, 0x69, 0x3e, 0xec, 0x38, 0x8b, 0xbd, 0x13, 0x75, 0x9f, 0xbd, 0xf7, 0x60, 0x72, 0x3e, 0x5c, 0xe1, 0x8c, 0x3d, 0x19, 0xc1, 0x98, 0xbd, 0x94, 0xa8, 0x6b, 0x3e, 0xa4, 0x59, 0x13, 0xbe, 0xe1, 0xf4, 0x0b, 0xbe, 0x20, 0x76, 0xd5, 0x3d, 0x8b, 0x59, 0x25, 0x3e, 0xd1, 0xe0, 0x70, 0x3d, 0x7e, 0x7f, 0xc2, 0xbd, 0x98, 0x8f, 0xa8, 0x3d, 0xb3, 0xd9, 0x19, 0x3e, 0xfa, 0xe4, 0xc3, 0xbd, 0xbe, 0x81, 0x13, 0x3e, 0xb4, 0xe4, 0xc6, 0xbd, 0x79, 0x98, 0x7a, 0xbd, 0x1e, 0x8d, 0x55, 0x3d, 0x1b, 0xc7, 0x40, 0x3d, 0x61, 0xf6, 0x40, 0x3d, 0x37, 0x2b, 0x59, 0x3e, 0xe5, 0x10, 0x5b, 0x3e, 0x9a, 0xd4, 0x8b, 0xbd, 0xb0, 0x43, 0xee, 0x3d, 0x62, 0x6c, 0xa7, 0x3d, 0x41, 0x67, 0x2a, 0x3c, 0xac, 0x4c, 0xbf, 0x3d, 0x24, 0x9a, 0x31, 0x3c, 0xed, 0xe2, 0x7b, 0x3d, 0x5a, 0x18, 0x6a, 0xbd, 0x0d, 0x63, 0xd8, 0xbd, 0xca, 0x60, 0x3d, 0x3d, 0xca, 0x29, 0xe2, 0x3d, 0x96, 0x0e, 0x9f, 0x3e, 0x33, 0x80, 0xcb, 0xbd, 0x10, 0x78, 0x1a, 0x3d, 0x59, 0x92, 0x98, 0x3d, 0x42, 0xcc, 0x69, 0xbd, 0x20, 0xb8, 0x76, 0x3e, 0xa6, 0x44, 0x81, 0xbe, 0xb8, 0x2b, 0x06, 0x3d, 0xa3, 0x46, 0x5a, 0x3e, 0x8c, 0xf6, 0xa6, 0xbd, 0x32, 0x33, 0x31, 0xbe, 0x11, 0x35, 0x29, 0xbe, 0x27, 0x48, 0x7f, 0x3e, 0x46, 0x3e, 0xea, 0xbd, 0xe5, 0xef, 0xb9, 0xbd, 0xc6, 0x85, 0x3d, 0xbd, 0x1d, 0x96, 0x43, 0x3c, 0x22, 0xe6, 0x75, 0xbd, 0xf3, 0x02, 0xab, 0x3e, 0x72, 0x48, 0x27, 0xbd, 0xd1, 0xac, 0xa4, 0x3c, 0x41, 0x23, 0x8a, 0x3e, 0x4b, 0xaf, 0x6b, 0xbe, 0x1a, 0x0e, 0x16, 0x3d, 0x4d, 0x3c, 0x84, 0xbd, 0x5e, 0x2b, 0x91, 0xbc, 0xbe, 0xfd, 0x43, 0xbe, 0x3e, 0x03, 0xd2, 0x3d, 0xe5, 0x93, 0x8e, 0x3e, 0x91, 0x3d, 0x25, 0x3e, 0xe6, 0x07, 0xa9, 0xbd, 0x70, 0x54, 0x63, 0x3d, 0x53, 0x8c, 0xd7, 0x3d, 0x27, 0xae, 0x0b, 0xbe, 0x5d, 0xdf, 0x7b, 0x3e, 0x47, 0x61, 0x7a, 0xbe, 0x66, 0x6f, 0x1c, 0x3e, 0x25, 0x2a, 0x75, 0x3e, 0x34, 0x23, 0x52, 0xbe, 0x62, 0x44, 0xef, 0xbd, 0x64, 0x78, 0x95, 0xbc, 0x32, 0xd3, 0xf0, 0x3c, 0x37, 0xf3, 0x33, 0x3d, 0x8d, 0x37, 0x6c, 0x3e, 0x3f, 0xf6, 0x81, 0x3e, 0x41, 0x22, 0xeb, 0x3d, 0x19, 0x7d, 0x14, 0xbe, 0x3a, 0xbd, 0xaf, 0x3d, 0xa3, 0x1a, 0x65, 0xbe, 0x1e, 0xf1, 0x97, 0x3b, 0xf9, 0xd4, 0x8b, 0x3d, 0xb8, 0x1d, 0x0c, 0xbe, 0x80, 0x9e, 0x94, 0x3d, 0x11, 0x0e, 0x36, 0x3d, 0x55, 0x27, 0x9d, 0xbd, 0x28, 0x9c, 0x46, 0x3e, 0xc1, 0x63, 0x20, 0xbe, 0xe1, 0x9a, 0xd9, 0xbb, 0x59, 0x34, 0xdc, 0xbd, 0xb2, 0xe0, 0x4e, 0x3c, 0x27, 0xe2, 0x2f, 0x3e, 0x9b, 0x9c, 0x33, 0x3e, 0x0f, 0xbf, 0x97, 0xbe, 0xa2, 0x2b, 0x47, 0xbe, 0xef, 0x10, 0x7d, 0x3e, 0x3f, 0x5e, 0x8e, 0xbd, 0x27, 0xff, 0xc8, 0x3d, 0x7e, 0x24, 0x76, 0xbd, 0x82, 0x52, 0x3c, 0x3e, 0xc9, 0x9f, 0xeb, 0x3c, 0x9b, 0x2e, 0x98, 0xbd, 0xb6, 0x00, 0x88, 0x3d, 0x98, 0x98, 0xc0, 0xbd, 0x40, 0xc3, 0x3a, 0xbe, 0x14, 0xc1, 0x8b, 0xbe, 0x5c, 0xc4, 0x65, 0xbd, 0x47, 0x7c, 0x37, 0x3d, 0x3d, 0xf2, 0x26, 0x3d, 0x66, 0x90, 0x78, 0xbe, 0x8a, 0x28, 0x02, 0xbe, 0x11, 0x79, 0x47, 0x3e, 0xf7, 0x7b, 0xd4, 0x3c, 0x5b, 0x75, 0xe7, 0xbb, 0xdb, 0xae, 0xcb, 0xbc, 0xed, 0xc2, 0x15, 0x3e, 0x0c, 0x01, 0xe4, 0x3d, 0xce, 0xd6, 0xd3, 0x3d, 0xbb, 0x13, 0x4f, 0x3e, 0xac, 0xea, 0x39, 0xbe, 0xcc, 0xe0, 0xe8, 0xbd, 0x54, 0x5a, 0x16, 0x3c, 0x30, 0xda, 0xef, 0x3d, 0x0e, 0xa6, 0x04, 0xbe, 0x1a, 0xf0, 0x1d, 0xbe, 0x6f, 0x8a, 0x1b, 0xbe, 0xec, 0x4e, 0x29, 0x3d, 0x2b, 0x68, 0xde, 0xbc, 0xca, 0xcc, 0x79, 0xbd, 0x42, 0x76, 0x39, 0xbb, 0xf0, 0xd6, 0x17, 0xbc, 0x80, 0xcd, 0x3f, 0x3d, 0x0b, 0x4b, 0xbb, 0xbc, 0xa3, 0x26, 0xa7, 0xbe, 0x17, 0x48, 0x9e, 0x3d, 0x9f, 0xde, 0xac, 0xbd, 0x30, 0x75, 0x8d, 0xbe, 0x9f, 0x33, 0x69, 0xbe, 0xab, 0x34, 0x50, 0xbd, 0x10, 0xbf, 0x83, 0x3e, 0xf8, 0x44, 0x1d, 0xbd, 0xf3, 0xd7, 0xd6, 0xbe, 0xdc, 0xca, 0x41, 0x3e, 0x22, 0x79, 0x7a, 0x3d, 0xb0, 0x4a, 0x05, 0xbb, 0x8a, 0x1f, 0x3c, 0x3e, 0xa0, 0x79, 0xe8, 0xbc, 0x20, 0x36, 0x85, 0xbd, 0x6f, 0x42, 0xaf, 0xbd, 0xde, 0xf7, 0x41, 0xbe, 0xe6, 0x2e, 0x13, 0xbe, 0x5d, 0x0b, 0x98, 0xbc, 0x16, 0xa7, 0x06, 0xbe, 0xe9, 0x11, 0xa1, 0x3d, 0x88, 0x27, 0x0e, 0x3e, 0xa6, 0x7d, 0x9a, 0x3e, 0xe4, 0x1d, 0x56, 0xbd, 0x83, 0x3a, 0x93, 0xbe, 0x3a, 0xac, 0xaf, 0xbd, 0x42, 0x4b, 0xda, 0x3d, 0xc7, 0x5f, 0xaf, 0x3d, 0x7d, 0x92, 0x38, 0x3e, 0x1f, 0xd7, 0xff, 0xbd, 0xc8, 0xfb, 0x32, 0x3e, 0xad, 0x4b, 0x4e, 0x3e, 0x9c, 0x28, 0x02, 0xbe, 0xbe, 0x97, 0x90, 0xbd, 0x73, 0x7c, 0x53, 0x3e, 0x98, 0xd8, 0xda, 0xbd, 0x98, 0xb9, 0x42, 0xbd, 0x51, 0x0a, 0xfc, 0x3d, 0xaf, 0xc8, 0x99, 0x3e, 0xd3, 0x33, 0xdc, 0x3a, 0xd3, 0x3b, 0x6c, 0xbe, 0xa7, 0x7d, 0x5b, 0x3e, 0x91, 0x7d, 0xa3, 0xbb, 0x34, 0x62, 0x1e, 0xbc, 0x6b, 0x10, 0xc0, 0x3e, 0x30, 0x51, 0x12, 0x3e, 0x42, 0xac, 0x25, 0xbe, 0xec, 0x25, 0x49, 0xbe, 0xcf, 0x77, 0xc7, 0x3d, 0x79, 0x25, 0x70, 0x3e, 0x6b, 0x48, 0xc6, 0xbd, 0xa3, 0x56, 0x2e, 0x3d, 0x7b, 0xca, 0xec, 0x3c, 0xff, 0x19, 0x1e, 0xbe, 0x85, 0x89, 0x89, 0x3e, 0x80, 0xf1, 0xf4, 0x3d, 0x17, 0x78, 0xb2, 0x3d, 0xbd, 0xca, 0x4b, 0xbe, 0x64, 0x5d, 0x34, 0x3e, 0x78, 0xa9, 0xd0, 0x3c, 0x7b, 0x11, 0x81, 0x3e, 0x69, 0xa0, 0xfd, 0x3d, 0x73, 0x07, 0x13, 0x3e, 0xc7, 0xfc, 0x93, 0xbe, 0x59, 0x33, 0xa1, 0x3d, 0xd1, 0xe6, 0x1d, 0x3e, 0xc8, 0xca, 0x5c, 0xbe, 0x41, 0x75, 0xa0, 0x3e, 0xe1, 0x66, 0x47, 0x3d, 0xa0, 0x5e, 0x1b, 0xbe, 0xa7, 0x85, 0x4a, 0xbc, 0x33, 0x8b, 0x21, 0x3d, 0x09, 0xd4, 0x26, 0x3e, 0x99, 0x79, 0x1c, 0xbe, 0x9d, 0x5d, 0xb6, 0x3d, 0x03, 0xc8, 0x13, 0xbe, 0x43, 0xc0, 0x12, 0x3e, 0x0d, 0x24, 0x28, 0xbd, 0x2d, 0x34, 0xfe, 0x3d, 0xab, 0xd8, 0x84, 0xbd, 0x33, 0x1a, 0x79, 0x3e, 0x2b, 0x03, 0x7f, 0x3e, 0x9b, 0x94, 0x85, 0xbe, 0x1a, 0x91, 0x39, 0x3e, 0x88, 0x71, 0x07, 0xbe, 0x6a, 0x82, 0x40, 0xbd, 0xb6, 0x7a, 0xa9, 0x3e, 0x42, 0x11, 0x89, 0x3c, 0x47, 0x14, 0x3c, 0x3e, 0x9d, 0x0a, 0x85, 0xbe, 0x50, 0xb6, 0xed, 0x3d, 0xaa, 0x3c, 0x84, 0x3d, 0xec, 0xaf, 0x12, 0xbe, 0xb4, 0x03, 0x52, 0xbd, 0x7a, 0xfa, 0x1a, 0xbb, 0x3a, 0x49, 0xfa, 0x3c, 0x3f, 0xa1, 0xb6, 0xbd, 0x1c, 0x4d, 0xc2, 0xbc, 0x3b, 0x66, 0xec, 0xbd, 0xa6, 0x71, 0x97, 0xbd, 0x85, 0x8a, 0xa5, 0x3d, 0x8e, 0xf9, 0xac, 0x3e, 0xa6, 0x4d, 0xb2, 0xbd, 0xfd, 0x3a, 0x73, 0xbd, 0x7d, 0x31, 0x2e, 0x3e, 0x7b, 0x0f, 0x22, 0xbd, 0xfc, 0xbc, 0x4d, 0xbd, 0x28, 0x5d, 0x2d, 0xbe, 0xb4, 0x20, 0x71, 0xbd, 0xdc, 0x37, 0xbc, 0xbb, 0xef, 0x88, 0x19, 0xbe, 0xdb, 0xd6, 0xda, 0x3d, 0xeb, 0x61, 0xda, 0xbd, 0x4e, 0x16, 0xbf, 0x3b, 0xd8, 0x73, 0xef, 0xbd, 0x8d, 0x56, 0x82, 0xbd, 0xa8, 0xbe, 0xce, 0x3c, 0xd7, 0xb4, 0x2b, 0x3e, 0x45, 0x94, 0xee, 0x3b, 0x30, 0xbe, 0x03, 0xbe, 0xc3, 0xbe, 0xab, 0x3d, 0x04, 0x49, 0x93, 0x3e, 0x73, 0x1f, 0x2e, 0x3d, 0x28, 0xfc, 0xec, 0x3d, 0x7d, 0x00, 0x04, 0xbe, 0x5b, 0x50, 0x1f, 0x3d, 0x74, 0xdc, 0x7f, 0x3c, 0xc0, 0xcb, 0xb6, 0x3d, 0x17, 0xd9, 0x34, 0x3e, 0xff, 0x5f, 0xd3, 0x3d, 0xbd, 0x67, 0x08, 0xbe, 0xfc, 0xc3, 0xac, 0x3c, 0x19, 0x72, 0x9b, 0xbd, 0x47, 0x5f, 0x8a, 0x3e, 0x07, 0xb3, 0xd0, 0xb9, 0x03, 0x18, 0xd8, 0x3d, 0x76, 0x96, 0xe6, 0x3d, 0xf2, 0x00, 0x72, 0x3e, 0x34, 0x11, 0x3a, 0xbe, 0x06, 0x9f, 0x97, 0x3c, 0x2c, 0x94, 0x93, 0x3e, 0x0a, 0xb7, 0xd1, 0x3d, 0x97, 0x91, 0x15, 0x3e, 0xb7, 0x82, 0x4b, 0xbd, 0xe9, 0xf9, 0x21, 0xbd, 0x7b, 0x22, 0xe3, 0xbd, 0xc0, 0xc1, 0x12, 0x3e, 0x9b, 0xe7, 0x08, 0x3b, 0xf7, 0x63, 0x66, 0xbd, 0x1d, 0x3d, 0x29, 0x3e, 0x3e, 0x3f, 0xf1, 0x3d, 0x1d, 0x07, 0xf0, 0xbc, 0x12, 0x4a, 0x04, 0xbe, 0xf5, 0x60, 0xb6, 0xbd, 0x8e, 0xb1, 0x9e, 0xbd, 0x23, 0x4f, 0x15, 0xbe, 0xfd, 0xa8, 0x90, 0x3e, 0xec, 0xe0, 0xd6, 0x3d, 0x35, 0x44, 0x4e, 0x3d, 0x69, 0x4e, 0x2c, 0x3e, 0x65, 0xa6, 0x0c, 0x3d, 0x14, 0x23, 0x2f, 0x3e, 0x05, 0xa0, 0x04, 0xbb, 0x40, 0x9c, 0x67, 0x3e, 0x8b, 0x2e, 0xdf, 0x3d, 0xf2, 0x0b, 0x0f, 0xbe, 0xe0, 0xa2, 0x37, 0x3e, 0xa1, 0xa7, 0xda, 0x3d, 0x5f, 0x0e, 0xc0, 0x3d, 0xd2, 0x7c, 0x5d, 0xbe, 0x0f, 0x90, 0xe0, 0xbc, 0x11, 0x69, 0x83, 0xbd, 0x74, 0xbe, 0xb6, 0x3d, 0x56, 0x90, 0xb1, 0x3d, 0x2b, 0xd4, 0xea, 0xbc, 0x53, 0x39, 0xaa, 0xbd, 0xc7, 0x66, 0x5b, 0x3e, 0x8f, 0x48, 0x22, 0x3e, 0x26, 0xf0, 0x76, 0x3d, 0xc6, 0x33, 0xae, 0x3d, 0xf3, 0xb9, 0x27, 0xbe, 0xb4, 0xdb, 0x03, 0xbe, 0x97, 0x0a, 0x0f, 0x3e, 0x27, 0x1b, 0x36, 0xbe, 0x06, 0x34, 0xfe, 0x3c, 0x00, 0x3c, 0xa2, 0x3d, 0xe2, 0x49, 0x9f, 0x3d, 0xdb, 0x0e, 0xf6, 0x3d, 0xc5, 0xfa, 0xee, 0x3d, 0x36, 0x3c, 0xcd, 0xbd, 0xb2, 0x1d, 0x97, 0xbb, 0xba, 0xa5, 0x95, 0xbe, 0xae, 0x31, 0x3a, 0x3e, 0xdd, 0x30, 0x12, 0x3c, 0xa3, 0xb1, 0x24, 0xbe, 0xa6, 0x5d, 0xa3, 0x3e, 0x92, 0x78, 0x60, 0xbe, 0x96, 0xa1, 0x29, 0xbe, 0x2a, 0xcf, 0xdf, 0x3e, 0x2b, 0x16, 0xbf, 0x3d, 0x31, 0x6b, 0x85, 0x3e, 0xf8, 0xb3, 0xba, 0xbd, 0x88, 0x18, 0x97, 0x3d, 0x47, 0x82, 0x17, 0xbe, 0xd5, 0x99, 0xcd, 0x3e, 0x28, 0x99, 0x29, 0xbe, 0x30, 0xcf, 0x51, 0xbc, 0x93, 0x12, 0x31, 0xbd, 0x27, 0x20, 0x25, 0x3e, 0xa3, 0x8a, 0x0f, 0x3e, 0xe6, 0x54, 0xa8, 0xbe, 0x4b, 0x1f, 0xa5, 0x3e, 0x07, 0x10, 0x72, 0xbe, 0xdc, 0xc7, 0x4b, 0xbe, 0x8d, 0x51, 0xd0, 0x3e, 0xaa, 0x68, 0x4a, 0xbd, 0xd2, 0x5e, 0x84, 0xbc, 0x95, 0x0b, 0x06, 0xbe, 0xcc, 0x1d, 0xb6, 0x3d, 0xaa, 0xed, 0x04, 0x3c, 0x32, 0x11, 0xd3, 0x3e, 0xe8, 0x91, 0xab, 0x3d, 0x4c, 0xef, 0x25, 0x3e, 0x9a, 0xc6, 0x18, 0xbe, 0x01, 0x61, 0x8a, 0x3e, 0x85, 0xc1, 0xae, 0xbd, 0xbe, 0x7a, 0x21, 0xbd, 0x6b, 0x37, 0x2b, 0x3e, 0x77, 0xec, 0x5b, 0xbe, 0x1d, 0xd4, 0x18, 0x3e, 0x4e, 0xb1, 0x5e, 0x3e, 0xaf, 0x6c, 0x0c, 0xbe, 0x49, 0xc2, 0x23, 0x3e, 0xfd, 0x65, 0xa8, 0xbd, 0x0f, 0x8f, 0x4c, 0x3e, 0x92, 0xbc, 0xa9, 0x3d, 0xb9, 0x25, 0xf1, 0x3d, 0xad, 0x96, 0x46, 0xbe, 0x31, 0x95, 0x84, 0xbd, 0x2f, 0x29, 0x4b, 0x3d, 0x06, 0xe2, 0xbc, 0xbd, 0x85, 0x50, 0x0f, 0x3e, 0x3a, 0xff, 0x3d, 0xbe, 0x08, 0x37, 0xd1, 0x3d, 0xe9, 0x7c, 0x99, 0x3d, 0x41, 0x07, 0x9c, 0xbd, 0xb5, 0x03, 0x14, 0x3e, 0xd1, 0xc9, 0x26, 0x3e, 0xf4, 0x0b, 0xba, 0x3d, 0x52, 0xd2, 0xd7, 0xbd, 0x2c, 0x82, 0xd5, 0xbd, 0x00, 0xa1, 0xf7, 0xbc, 0xd0, 0x00, 0x8e, 0xbc, 0x08, 0x6a, 0x92, 0xbc, 0xf4, 0x3b, 0xb3, 0x3d, 0x2e, 0x0b, 0x31, 0xbe, 0x13, 0x73, 0x06, 0xbe, 0x16, 0x1b, 0x23, 0x3e, 0x15, 0xc9, 0xf2, 0x3d, 0xe7, 0xfe, 0xd0, 0x3c, 0x04, 0x8e, 0x31, 0xbe, 0x51, 0x0a, 0x24, 0xbe, 0xcf, 0xa2, 0x90, 0x3e, 0x9a, 0xa2, 0x8d, 0xbd, 0xb9, 0xcd, 0x25, 0x3e, 0x97, 0xcc, 0xc3, 0x3d, 0x83, 0x1d, 0x56, 0x3e, 0x8f, 0xb9, 0xf3, 0x3d, 0xd1, 0x1c, 0x82, 0x3d, 0xac, 0xab, 0x22, 0x3d, 0xe0, 0xa9, 0x1e, 0xbd, 0xa3, 0xe1, 0x56, 0xbe, 0xad, 0xc6, 0x5d, 0x3d, 0xa7, 0xfa, 0x41, 0xbd, 0xa4, 0xc1, 0xc5, 0x3d, 0x7e, 0x0b, 0xf5, 0xbd, 0x85, 0xaf, 0xde, 0x3d, 0x0f, 0x8b, 0x01, 0x3e, 0x33, 0xfb, 0xb4, 0x3c, 0xa8, 0xe9, 0x2d, 0x3d, 0x63, 0x9a, 0x22, 0xbe, 0x96, 0xfc, 0x45, 0xbe, 0x4a, 0x2f, 0x75, 0x3e, 0xda, 0x1f, 0x09, 0xbe, 0x7d, 0x3b, 0x8b, 0x3b, 0x25, 0x66, 0x54, 0x3e, 0x04, 0x2c, 0x1d, 0xbd, 0x44, 0xde, 0x5e, 0xbd, 0xf2, 0xe8, 0x05, 0x3d, 0x1e, 0x91, 0xd0, 0xbd, 0xf8, 0x3f, 0x12, 0x3d, 0x5f, 0x75, 0x0b, 0xbe, 0xf8, 0x4d, 0xd8, 0xbd, 0xf8, 0x75, 0x16, 0x3d, 0xc2, 0x1a, 0x01, 0xbc, 0x00, 0x2a, 0xb8, 0x3d, 0x76, 0xc3, 0x18, 0xbb, 0xf7, 0x7c, 0xc5, 0x3d, 0xf9, 0x74, 0x1b, 0x3e, 0xe3, 0x4b, 0x2f, 0x3e, 0x00, 0xc7, 0xa8, 0x3e, 0x30, 0xd7, 0xe0, 0xbd, 0x0f, 0x7a, 0x90, 0xbd, 0xe7, 0x2d, 0x28, 0xbd, 0xb9, 0x66, 0xc4, 0xbd, 0x62, 0xb4, 0xd0, 0xbd, 0x89, 0x76, 0x19, 0x3e, 0x15, 0x40, 0x73, 0xbe, 0xbf, 0x6b, 0x29, 0xbd, 0x5d, 0xef, 0xbb, 0xbd, 0x26, 0xae, 0x36, 0x3d, 0x78, 0x63, 0x57, 0xbe, 0x18, 0xc7, 0x37, 0xbe, 0x82, 0x03, 0x98, 0x3d, 0x42, 0xf9, 0x5a, 0xbd, 0x90, 0x08, 0x13, 0xbe, 0x19, 0xfe, 0x41, 0x3e, 0x0f, 0xe7, 0x18, 0xbd, 0xcd, 0x37, 0xf4, 0x3d, 0x7b, 0x03, 0x54, 0x3e, 0x97, 0x92, 0x33, 0xbe, 0xcc, 0x95, 0x5e, 0x3e, 0x48, 0x0e, 0x13, 0x3d, 0x98, 0xd4, 0xad, 0xbe, 0x67, 0xe9, 0x52, 0xbe, 0x15, 0x4d, 0x68, 0x3e, 0xdc, 0x4e, 0x7e, 0x3d, 0x7a, 0x9d, 0x80, 0xbd, 0xb8, 0x2f, 0x8e, 0xbe, 0x6e, 0xe4, 0xee, 0x3d, 0x2b, 0xcb, 0x44, 0x3e, 0x20, 0xf4, 0x85, 0x3d, 0xf4, 0x94, 0x5f, 0xbc, 0xbd, 0x7f, 0x01, 0x3e, 0xad, 0x1b, 0x91, 0xbd, 0x55, 0x4f, 0x12, 0x3e, 0xdc, 0x8b, 0x46, 0xbe, 0xc8, 0x11, 0xfa, 0x3d, 0xbf, 0x15, 0x94, 0x3e, 0x93, 0xbb, 0xbd, 0xbd, 0xec, 0x70, 0x06, 0x3e, 0x3d, 0xab, 0xc5, 0xbc, 0x7c, 0x17, 0xe8, 0x3a, 0x9f, 0x1f, 0x06, 0xbe, 0x56, 0xd0, 0x74, 0x3d, 0x3e, 0xd4, 0x8d, 0xbe, 0x3b, 0xb4, 0x81, 0x3e, 0xa7, 0x39, 0xd2, 0xbd, 0x55, 0xae, 0x2c, 0xbe, 0x27, 0x73, 0x0f, 0x3d, 0x8f, 0xf6, 0x95, 0x3d, 0x7f, 0xdd, 0x3d, 0x3e, 0x46, 0x9c, 0x45, 0xbe, 0x17, 0x2b, 0xcd, 0x3d, 0x0a, 0xd3, 0x54, 0xbb, 0x1c, 0x22, 0x83, 0xbe, 0x34, 0x46, 0x8a, 0x3e, 0x23, 0xbd, 0xa0, 0xbc, 0x93, 0x3c, 0x00, 0xbe, 0x69, 0x73, 0x0b, 0xbe, 0x38, 0x7c, 0x54, 0x3c, 0x06, 0x49, 0x17, 0xbe, 0xee, 0xa8, 0x75, 0x3e, 0x32, 0x67, 0x61, 0x3e, 0xa1, 0xb0, 0xbd, 0x3c, 0xcc, 0x29, 0xb9, 0xbc, 0xe6, 0xa3, 0x91, 0xbd, 0x28, 0x05, 0x91, 0x3e, 0x5c, 0x96, 0xfc, 0xbd, 0x9b, 0xe7, 0xbb, 0xbd, 0xdc, 0x0e, 0x26, 0xbd, 0x0f, 0xdd, 0x63, 0xbe, 0x56, 0x8c, 0x74, 0x3e, 0x86, 0xf0, 0x05, 0xbe, 0x53, 0xb7, 0xea, 0x3b, 0xfc, 0xd6, 0xd1, 0xbd, 0xfc, 0xc2, 0x27, 0xbe, 0xaf, 0x77, 0xd9, 0xbd, 0xa5, 0xc4, 0x3d, 0x3e, 0xc2, 0x0b, 0x74, 0x3c, 0xee, 0x6a, 0x7a, 0xbb, 0x75, 0xc9, 0xd5, 0xbd, 0x6f, 0x5c, 0xef, 0x3c, 0xd3, 0x2d, 0xa4, 0xbd, 0x7e, 0xd2, 0xd1, 0x3d, 0x47, 0xe7, 0x96, 0x3d, 0xfe, 0xf4, 0x7c, 0xbe, 0x8f, 0x70, 0x6e, 0x3e, 0x83, 0x1c, 0x59, 0x3c, 0x28, 0xb3, 0x94, 0xbe, 0x23, 0x01, 0x16, 0x3e, 0xf9, 0x12, 0x4f, 0x3e, 0x3f, 0x4e, 0xd6, 0xbd, 0xf6, 0x95, 0xbc, 0x3d, 0x53, 0x36, 0x4d, 0x3e, 0x43, 0xe1, 0x37, 0xbe, 0x9b, 0x66, 0x9c, 0x3d, 0x19, 0x16, 0xb7, 0xbd, 0xe8, 0x1e, 0x25, 0x3d, 0x7a, 0x4a, 0x1b, 0xbe, 0x6a, 0x8b, 0x2a, 0x3e, 0xc2, 0xe0, 0x7e, 0x3d, 0xc2, 0x58, 0xd8, 0xbd, 0xab, 0xce, 0x81, 0xbd, 0x76, 0xc5, 0x98, 0xbe, 0x2e, 0x2d, 0x93, 0xbe, 0x84, 0xdf, 0xee, 0x3d, 0x3e, 0x5f, 0x67, 0x3d, 0x30, 0x6c, 0x71, 0xbd, 0xf0, 0x21, 0xc1, 0xbc, 0xeb, 0x0d, 0x6e, 0x3d, 0x9c, 0x3a, 0x13, 0x3e, 0xc4, 0xb1, 0x40, 0x3e, 0x5b, 0x48, 0x5b, 0xbd, 0xb2, 0x2c, 0x99, 0xbc, 0x0a, 0x47, 0x2e, 0xbe, 0x75, 0xc8, 0x1b, 0x3d, 0xc1, 0xa0, 0x0b, 0x3e, 0x69, 0x47, 0x98, 0xbe, 0x27, 0xb1, 0x5b, 0x3e, 0xa4, 0x5c, 0x86, 0xbd, 0x4d, 0xa5, 0x2b, 0xbd, 0x07, 0x11, 0x14, 0x3e, 0xbb, 0xd9, 0xa6, 0xbc, 0x12, 0x14, 0xa7, 0x3d, 0x61, 0xa1, 0xca, 0xbd, 0xbb, 0x10, 0x56, 0x3e, 0xd3, 0x95, 0x44, 0x3e, 0x31, 0xcb, 0x83, 0x3d, 0x74, 0x58, 0x26, 0x3c, 0xbd, 0xa5, 0x31, 0xbe, 0x49, 0x6e, 0x25, 0x3d, 0x17, 0x72, 0xab, 0xbd, 0xe1, 0xe1, 0xa4, 0xbd, 0x60, 0x1f, 0xed, 0x3c, 0x2e, 0x40, 0xf2, 0xbc, 0x14, 0x88, 0xee, 0x3d, 0x5c, 0x34, 0x8d, 0x3d, 0x3e, 0x7b, 0xe7, 0xbc, 0x8e, 0xb8, 0x33, 0xbd, 0xe5, 0x34, 0x33, 0xbe, 0x9c, 0x57, 0x60, 0xbe, 0x47, 0x30, 0x0d, 0x3e, 0x01, 0x0a, 0x5b, 0x3e, 0xa6, 0x8f, 0x92, 0x3d, 0xf2, 0x8b, 0x27, 0x3c, 0xe6, 0x67, 0x7e, 0xbd, 0xd1, 0x39, 0x1e, 0xbd, 0xc1, 0x15, 0x79, 0x3e, 0xea, 0x56, 0x02, 0x3d, 0x67, 0x0e, 0xa7, 0x3d, 0x3f, 0xf6, 0x36, 0x3e, 0xbb, 0x7c, 0x1b, 0xbe, 0xda, 0xd4, 0x99, 0xbd, 0xe4, 0x40, 0xad, 0x3d, 0xb4, 0x86, 0x28, 0x3e, 0x6b, 0x38, 0xfc, 0xbd, 0x54, 0xe8, 0x8c, 0xbe, 0xa2, 0x03, 0x88, 0x3d, 0x13, 0xfa, 0x19, 0xbe, 0xc5, 0xe7, 0x8a, 0x3e, 0x35, 0x80, 0xb7, 0xbc, 0x1d, 0x5e, 0x13, 0x3d, 0xd5, 0xcc, 0x08, 0x3e, 0xbd, 0xe6, 0xf7, 0x3c, 0x82, 0xe1, 0x23, 0x3e, 0x92, 0x1d, 0xbc, 0x3d, 0x7c, 0xd9, 0x27, 0x3e, 0xd1, 0x3c, 0x2f, 0xbd, 0x53, 0xb2, 0x2d, 0xbe, 0x41, 0x9d, 0x0b, 0x3e, 0x4e, 0xd8, 0x59, 0xbe, 0x34, 0x12, 0xc0, 0xbc, 0x4b, 0xd2, 0xc3, 0x3d, 0xe6, 0x84, 0x8a, 0x3e, 0x8f, 0xc5, 0xcb, 0x3d, 0x16, 0x75, 0x3d, 0x3d, 0x9f, 0xd1, 0x79, 0xbd, 0x50, 0x92, 0xe3, 0xbd, 0xb2, 0xea, 0x61, 0x3e, 0x8a, 0x4e, 0x40, 0x3e, 0xa5, 0x43, 0xb9, 0x3d, 0x80, 0xd6, 0x1c, 0xbd, 0xe6, 0x27, 0xf4, 0xbb, 0xbc, 0x1b, 0x6b, 0xbe, 0x42, 0x24, 0xd9, 0xbc, 0xea, 0xdd, 0x9d, 0x3d, 0x92, 0x4b, 0xd6, 0xbc, 0x17, 0x0c, 0xc6, 0x3d, 0x21, 0x84, 0x11, 0x3e, 0xca, 0xc5, 0x99, 0x3e, 0x6b, 0x93, 0xd8, 0x3d, 0xd1, 0x8e, 0xbe, 0x3c, 0xb3, 0x03, 0x35, 0x3e, 0x98, 0x51, 0x6d, 0x3d, 0x3b, 0x56, 0x1c, 0x3c, 0x80, 0x59, 0x09, 0x3e, 0xb0, 0xe0, 0x1d, 0xbd, 0x63, 0x85, 0x8b, 0x3c, 0xa4, 0x92, 0xa5, 0xbd, 0x0e, 0x53, 0x2b, 0xbe, 0x24, 0xcd, 0x09, 0xbe, 0xba, 0x70, 0x28, 0xbd, 0x5a, 0x55, 0x2c, 0xbe, 0xcd, 0xc5, 0x3f, 0xbe, 0x25, 0x5c, 0x61, 0xbd, 0x2b, 0x21, 0x67, 0x3e, 0x45, 0xea, 0x62, 0x3e, 0x55, 0x86, 0x1d, 0x3e, 0x9a, 0xe8, 0xa9, 0x3d, 0x65, 0x93, 0x1b, 0xbe, 0x83, 0xc3, 0xb9, 0xbd, 0x3b, 0x40, 0x8e, 0x3e, 0xf8, 0xa0, 0x93, 0x3e, 0x1e, 0xf2, 0x2a, 0x3d, 0x72, 0xcc, 0x20, 0xbd, 0x12, 0x28, 0x23, 0xbd, 0xa0, 0x66, 0x43, 0x3e, 0x5b, 0xa9, 0x8a, 0x3e, 0xb8, 0xfc, 0xcf, 0xbd, 0xd6, 0x6e, 0x43, 0xbd, 0x74, 0xd5, 0xad, 0xbd, 0xd5, 0x5c, 0x18, 0x3e, 0x6b, 0x15, 0x30, 0xbe, 0x23, 0xaa, 0x9b, 0x3e, 0x88, 0x11, 0x67, 0x3d, 0x9a, 0x25, 0xd2, 0x3d, 0xd2, 0xe8, 0x0f, 0xbd, 0x05, 0xfb, 0xe3, 0xbd, 0x87, 0xbe, 0xad, 0x3d, 0x83, 0xb3, 0x84, 0xbe, 0xcb, 0x30, 0xeb, 0xbb, 0xac, 0xa0, 0xfa, 0xbb, 0xa2, 0x94, 0x49, 0x3e, 0x25, 0x7d, 0xb1, 0x3d, 0x06, 0xa1, 0x94, 0x3d, 0xb7, 0xb9, 0x3a, 0x3e, 0x56, 0x6b, 0x68, 0x3e, 0x39, 0x34, 0x3b, 0x3d, 0xef, 0x11, 0x08, 0xbe, 0x22, 0x73, 0x63, 0x3d, 0xcc, 0xe8, 0x1a, 0x3e, 0xcb, 0xfd, 0xd2, 0x3d, 0x2a, 0x49, 0x2f, 0x3e, 0xc7, 0x98, 0xcf, 0x3d, 0x2c, 0x25, 0x92, 0x3c, 0xbc, 0x2c, 0x00, 0xbe, 0x8d, 0xf2, 0xf4, 0x3c, 0x84, 0x02, 0x0c, 0xbe, 0xad, 0x9c, 0xe9, 0x3d, 0x94, 0x85, 0x81, 0x3e, 0x1b, 0xbe, 0xc1, 0xbd, 0x8e, 0xdc, 0x73, 0x3d, 0x55, 0x30, 0x45, 0x3d, 0x0f, 0x2e, 0x54, 0x3d, 0xb0, 0xcb, 0xca, 0x3d, 0xbe, 0x8e, 0xdb, 0x3c, 0x63, 0xa5, 0x89, 0x3d, 0x92, 0xa3, 0x20, 0x3e, 0xc7, 0xfd, 0x05, 0xbe, 0x55, 0x40, 0x11, 0x3e, 0xde, 0x7b, 0x39, 0x3e, 0x12, 0x61, 0x8e, 0xbd, 0x83, 0xe0, 0x33, 0x3e, 0x40, 0x9a, 0x89, 0x3c, 0x52, 0xe3, 0x0a, 0xbd, 0xac, 0xda, 0xde, 0x3d, 0xd1, 0x0c, 0x3e, 0xbe, 0x4c, 0x3a, 0x82, 0x3e, 0x0e, 0x75, 0xac, 0xbd, 0x3f, 0xb3, 0xa5, 0xbd, 0x16, 0x5f, 0xde, 0x3c, 0x2c, 0xe3, 0x69, 0x3d, 0xa5, 0x68, 0xef, 0x3d, 0x76, 0x89, 0x10, 0xbe, 0xa9, 0x84, 0x81, 0x3d, 0xf0, 0x9a, 0x6c, 0x3e, 0xfc, 0x3e, 0x14, 0xbe, 0xea, 0x86, 0x1c, 0xbe, 0x56, 0x96, 0x19, 0xbe, 0x50, 0x56, 0x1f, 0xbe, 0xa1, 0xd9, 0x21, 0x3d, 0x3e, 0x4f, 0x77, 0x3d, 0xd0, 0x25, 0xcd, 0xbd, 0x44, 0x55, 0xb1, 0xbd, 0x5f, 0xbf, 0x05, 0x3d, 0x02, 0xe8, 0x19, 0x3e, 0x36, 0x7f, 0x06, 0x3c, 0x0b, 0x44, 0xa5, 0x3e, 0x02, 0x9d, 0xb1, 0xbd, 0x37, 0x23, 0x2a, 0x3d, 0x20, 0xb0, 0xf6, 0xbc, 0xfb, 0x58, 0xdf, 0x3d, 0x07, 0x45, 0x0c, 0xbd, 0x05, 0xf2, 0xc9, 0x3c, 0xdd, 0xe8, 0x0a, 0xbe, 0x1e, 0x97, 0x78, 0x3b, 0xd3, 0xb0, 0x04, 0xbe, 0xb2, 0x13, 0x67, 0x3e, 0xc1, 0x09, 0x51, 0xbd, 0xf6, 0xa1, 0xb0, 0xbd, 0x9c, 0x57, 0x84, 0xbd, 0x20, 0xc6, 0x28, 0x3c, 0xc2, 0xdb, 0x92, 0x3e, 0x93, 0x7f, 0x4e, 0x3e, 0x68, 0xdf, 0x32, 0xbe, 0x81, 0xa3, 0x95, 0x3d, 0xd4, 0x41, 0x49, 0x3e, 0x58, 0xf9, 0x3d, 0xbd, 0x42, 0x27, 0x83, 0x3e, 0x1c, 0x24, 0x0a, 0x3e, 0x64, 0xb4, 0x10, 0x3c, 0xa6, 0x46, 0x02, 0xbc, 0x8e, 0xfa, 0x60, 0xbe, 0xc9, 0xdf, 0xc5, 0x3b, 0xed, 0xec, 0x14, 0x3d, 0x5b, 0xcb, 0xe5, 0xbd, 0xd2, 0x82, 0xae, 0x3d, 0x74, 0xf7, 0x90, 0x3e, 0x1a, 0x78, 0x1d, 0xbe, 0x0f, 0xa4, 0xe0, 0x3c, 0x34, 0xa9, 0x70, 0x3e, 0x5c, 0x6d, 0xcc, 0x3d, 0x14, 0x31, 0x8c, 0x3c, 0x33, 0xb1, 0x7c, 0x3e, 0x62, 0x27, 0x23, 0xbe, 0x30, 0xfc, 0x4f, 0x3c, 0x30, 0xcf, 0xf4, 0x3d, 0x20, 0x8d, 0x88, 0xbd, 0xf7, 0x41, 0x34, 0xbe, 0xeb, 0xb8, 0x0d, 0x3e, 0x02, 0xb6, 0x8b, 0x3c, 0x6b, 0x25, 0xda, 0x3c, 0xd0, 0xd5, 0x92, 0x3d, 0xde, 0x66, 0x26, 0x3e, 0x60, 0x29, 0x99, 0xbd, 0x1c, 0xde, 0x6f, 0xbd, 0x74, 0xe9, 0x81, 0x3e, 0xc7, 0x67, 0x5e, 0xbe, 0x12, 0xd0, 0x42, 0xbd, 0x7f, 0xed, 0xfb, 0x3d, 0x35, 0xd0, 0x84, 0x3d, 0x2a, 0xd5, 0x56, 0xbe, 0x78, 0xeb, 0x8f, 0x3e, 0x6b, 0x1f, 0x8f, 0xbb, 0x28, 0xf6, 0xa6, 0xbd, 0x74, 0x60, 0x49, 0x3e, 0x14, 0x60, 0xde, 0x3d, 0xf4, 0x93, 0x83, 0x3d, 0x16, 0xe9, 0x50, 0xbd, 0x82, 0x14, 0xf7, 0x3d, 0x99, 0xaa, 0x29, 0x3e, 0x5b, 0x3f, 0xc3, 0xbd, 0x3d, 0xcf, 0x7d, 0x3e, 0xb0, 0x67, 0x3b, 0xbe, 0xda, 0xfb, 0x0c, 0x3d, 0x46, 0x20, 0x6f, 0x3e, 0xcf, 0x43, 0x4c, 0x3e, 0x55, 0xe8, 0xed, 0xbd, 0xb5, 0x4b, 0x99, 0x3e, 0xe8, 0xc8, 0xf0, 0xbd, 0x83, 0x0e, 0x02, 0xbd, 0x43, 0x06, 0xe2, 0x3d, 0x50, 0x25, 0x33, 0x3e, 0xb0, 0x16, 0x3c, 0x3e, 0xfd, 0x1d, 0x07, 0xbd, 0xea, 0xe2, 0x57, 0x3e, 0x53, 0x5b, 0x28, 0xbd, 0x05, 0x82, 0xa7, 0x3c, 0xfe, 0xfe, 0xd0, 0x3d, 0x2b, 0x12, 0x18, 0xbe, 0x19, 0xc6, 0x6a, 0xbd, 0x46, 0xd5, 0x8a, 0x3e, 0x69, 0xe7, 0x6d, 0xbe, 0x2f, 0x7f, 0xbc, 0xbd, 0x53, 0x0f, 0x8b, 0x3e, 0xbd, 0x61, 0xc6, 0x3d, 0x47, 0xa3, 0x81, 0x3e, 0xe1, 0x43, 0x0f, 0x3e, 0x3c, 0x68, 0xb1, 0xbd, 0x17, 0x9c, 0x6f, 0x3e, 0xf3, 0x42, 0xdc, 0xbd, 0xc5, 0x62, 0x0c, 0xbe, 0xb8, 0xd5, 0x5d, 0x3c, 0x06, 0x16, 0x8c, 0xbe, 0x8d, 0xa4, 0x03, 0xbd, 0xb7, 0x23, 0x2a, 0x3e, 0x0e, 0xad, 0x4a, 0x3e, 0x32, 0xc6, 0x86, 0x3e, 0xe7, 0xff, 0x1d, 0xbe, 0xad, 0xae, 0x4d, 0xbe, 0x9a, 0x5a, 0x8e, 0x3e, 0xf1, 0x99, 0x6b, 0x3e, 0xfc, 0xf0, 0xd0, 0x3d, 0x5a, 0xd7, 0xec, 0xbb, 0xd2, 0xf9, 0x93, 0x3e, 0xfa, 0x7d, 0x75, 0x3e, 0x64, 0x2e, 0x91, 0x3e, 0xab, 0x73, 0x65, 0xbd, 0x19, 0x73, 0x0b, 0xbe, 0x88, 0xde, 0x8c, 0xbe, 0x55, 0xae, 0x0d, 0xbe, 0xee, 0x15, 0xf8, 0xbd, 0x28, 0xfa, 0x9a, 0x3d, 0xab, 0xfe, 0x8f, 0x3e, 0x84, 0xfa, 0xa8, 0xbb, 0xfd, 0x14, 0xd4, 0x3d, 0x26, 0xd1, 0x0e, 0x3e, 0xec, 0x52, 0x32, 0x3e, 0x51, 0xa8, 0xa6, 0x3e, 0x12, 0x9c, 0xad, 0x3c, 0x55, 0x49, 0x89, 0x3d, 0xd5, 0x2f, 0x0e, 0x3e, 0x23, 0x4d, 0x35, 0x3d, 0x2d, 0xae, 0xa3, 0xbe, 0x4c, 0x23, 0xcd, 0xbd, 0xfc, 0xe6, 0x9b, 0x3e, 0x25, 0x5a, 0xca, 0x3d, 0x89, 0x56, 0xa4, 0xbe, 0x25, 0xbc, 0x0e, 0xbe, 0x40, 0xe0, 0x0c, 0x3e, 0xca, 0x57, 0x6c, 0xbe, 0xc6, 0x30, 0x9c, 0xbe, 0xfc, 0xc4, 0xfc, 0xbc, 0xeb, 0x05, 0x54, 0x3e, 0x5a, 0x6c, 0xd4, 0x3b, 0xa3, 0x08, 0xdd, 0x3d, 0xf4, 0xdf, 0x41, 0x3c, 0xb1, 0x7c, 0xa9, 0x3b, 0x1b, 0xcc, 0x6b, 0x3e, 0x33, 0x58, 0x4f, 0xbe, 0x29, 0xd5, 0xdc, 0xbd, 0x25, 0xe8, 0xc3, 0x3e, 0x63, 0x2d, 0x75, 0x3e, 0x6f, 0xa1, 0x9b, 0xbe, 0xf4, 0xaf, 0x6c, 0x3e, 0x3c, 0xe3, 0x3a, 0x3e, 0x3d, 0xf9, 0xef, 0xbd, 0x82, 0xfd, 0xa7, 0xbe, 0x47, 0x4b, 0x9f, 0x3d, 0xcb, 0xde, 0x3e, 0xbe, 0x90, 0x85, 0x76, 0xbb, 0x20, 0x3f, 0x97, 0x3e, 0x18, 0x42, 0xd2, 0x3d, 0xf3, 0xcc, 0xdb, 0x3c, 0xa7, 0xed, 0x9f, 0x3d, 0x13, 0x07, 0xa9, 0xbd, 0xa6, 0x72, 0x67, 0xbe, 0xea, 0x25, 0xf3, 0x3d, 0x09, 0x0e, 0xe2, 0xbd, 0xc7, 0xd6, 0x9c, 0x3a, 0xee, 0x73, 0x40, 0x3e, 0xdf, 0x60, 0x36, 0x3e, 0x68, 0x68, 0xe8, 0xbc, 0x48, 0x3c, 0x80, 0xbe, 0x93, 0xc0, 0xeb, 0x3d, 0x38, 0x05, 0xe8, 0x3d, 0xec, 0x04, 0xb8, 0x3d, 0x8d, 0x46, 0xa1, 0x3d, 0x58, 0xce, 0x0f, 0xbe, 0xe7, 0xd8, 0x26, 0x3e, 0xd8, 0xe6, 0x45, 0x3e, 0x21, 0x12, 0xb9, 0xbb, 0x46, 0x16, 0x42, 0xbc, 0xd5, 0xfb, 0x37, 0xbd, 0xe5, 0x2e, 0x0d, 0xbe, 0xca, 0x7b, 0x1e, 0xbe, 0xc2, 0xbd, 0xc9, 0x3d, 0x06, 0x7d, 0x18, 0x3e, 0xef, 0xc7, 0xf7, 0x3d, 0xb8, 0x77, 0x54, 0x3e, 0x1c, 0x57, 0xf1, 0xbd, 0xf2, 0x3b, 0xc6, 0xbd, 0xa0, 0x48, 0x28, 0xbe, 0x8e, 0x20, 0x22, 0x3d, 0x1f, 0x55, 0x21, 0xbe, 0x03, 0xc3, 0x9d, 0xbe, 0xff, 0x72, 0x8e, 0x3d, 0x00, 0x24, 0x6c, 0xbd, 0x46, 0xdd, 0xc4, 0x3d, 0x1d, 0x09, 0x2f, 0x3e, 0xa8, 0xc1, 0x57, 0x3e, 0x1d, 0x82, 0x1d, 0x3e, 0x05, 0xdf, 0x63, 0x3d, 0x41, 0x99, 0xec, 0xbd, 0x37, 0x64, 0xda, 0xbd, 0xeb, 0x2d, 0x80, 0xbc, 0x63, 0xb3, 0x15, 0xbe, 0x6f, 0xc4, 0x11, 0x3d, 0xe9, 0x63, 0x72, 0x3e, 0x3d, 0x37, 0xca, 0xbd, 0xd6, 0x52, 0xf8, 0x3d, 0x7b, 0x96, 0x9d, 0xbd, 0x2e, 0xe9, 0x43, 0xbe, 0x2d, 0x12, 0x4c, 0x3e, 0xba, 0x64, 0x82, 0x3e, 0x4a, 0x3d, 0x63, 0x3c, 0x4e, 0xc3, 0x4c, 0xbe, 0x52, 0x99, 0x59, 0x3e, 0xb8, 0xca, 0x7d, 0x3e, 0xde, 0xe6, 0x67, 0xbe, 0x58, 0x30, 0x9f, 0x3d, 0x80, 0xef, 0x72, 0x3e, 0x77, 0x15, 0x83, 0xbe, 0xb0, 0x87, 0x42, 0x3e, 0x1e, 0x52, 0x2a, 0x3e, 0x1b, 0x7e, 0x65, 0xbd, 0x80, 0xfe, 0x0c, 0x3e, 0x3e, 0xb2, 0x3d, 0xbe, 0xcf, 0x61, 0x13, 0xbd, 0x2f, 0xee, 0x1e, 0x3e, 0x74, 0x24, 0x3f, 0xbd, 0xa7, 0x37, 0x12, 0xbe, 0x77, 0x65, 0x30, 0x3e, 0xc5, 0xdf, 0x0c, 0x3e, 0x6b, 0x86, 0x6f, 0xbd, 0x4b, 0x6b, 0x1c, 0x3e, 0xbf, 0x16, 0xe4, 0x3d, 0x66, 0x2c, 0x98, 0x3d, 0x92, 0x57, 0xe5, 0xbd, 0x40, 0x08, 0x83, 0x3d, 0x06, 0x9c, 0x79, 0x3d, 0xb5, 0x9e, 0x58, 0xbe, 0xb9, 0xe6, 0xb2, 0x3d, 0x41, 0x40, 0x4a, 0xbd, 0xba, 0xd2, 0x79, 0x3d, 0xec, 0x02, 0x4d, 0xbd, 0x88, 0xac, 0x1b, 0x3c, 0x3d, 0x83, 0x9e, 0x3d, 0xc6, 0x0e, 0x37, 0x3e, 0xdd, 0x71, 0x56, 0x3e, 0x87, 0xbf, 0xad, 0x3d, 0x3f, 0x88, 0x8a, 0x3d, 0x75, 0x65, 0x88, 0x3d, 0xcd, 0x7a, 0x42, 0x3e, 0x07, 0xa7, 0x56, 0xbc, 0x06, 0xae, 0xfd, 0x3c, 0xde, 0xba, 0x02, 0xbe, 0xc0, 0x85, 0x3d, 0xbe, 0xe7, 0x7e, 0xfd, 0xbd, 0x2d, 0x82, 0x82, 0xbe, 0xf3, 0x96, 0x93, 0xbe, 0x97, 0xd7, 0x87, 0x3e, 0x59, 0xaf, 0xeb, 0xba, 0xec, 0xc1, 0xf8, 0xbc, 0xc0, 0xed, 0xd2, 0xbd, 0x3c, 0x59, 0x91, 0xbd, 0x3d, 0x6c, 0x7e, 0x3d, 0x6b, 0x9d, 0x82, 0x3e, 0x6f, 0x65, 0x2a, 0x3e, 0x1d, 0xa8, 0xbf, 0xbd, 0x7c, 0x5c, 0x03, 0xbd, 0x7b, 0xf7, 0x50, 0x3e, 0x13, 0x19, 0x26, 0x3e, 0x4e, 0x97, 0x06, 0x3e, 0x03, 0x69, 0x6f, 0xbe, 0xe9, 0xfa, 0x9b, 0xbe, 0x72, 0x79, 0xec, 0xbc, 0xc4, 0x09, 0x0a, 0x3d, 0x9c, 0x2b, 0x1c, 0x3e, 0xdb, 0xba, 0xd7, 0xbc, 0x82, 0x12, 0x30, 0x3b, 0xd7, 0xb5, 0x74, 0xbd, 0xbf, 0xd0, 0xda, 0x3d, 0x52, 0x25, 0xc2, 0x3d, 0xf4, 0x1e, 0xff, 0x3c, 0x98, 0x96, 0x07, 0xbe, 0x65, 0xa7, 0x1d, 0x3e, 0x79, 0xf2, 0xc8, 0x3c, 0xe4, 0x11, 0x6c, 0xbd, 0xf9, 0x1f, 0x5f, 0x3d, 0xe2, 0x8d, 0x12, 0x3e, 0x7c, 0x16, 0xfb, 0xbd, 0x5a, 0x74, 0x96, 0xbd, 0xe1, 0x2b, 0x0e, 0x3e, 0x3b, 0x78, 0xe5, 0x3c, 0xfc, 0x4b, 0xcd, 0xbd, 0xe4, 0x8d, 0x66, 0x3d, 0xb5, 0x63, 0x72, 0x3e, 0x97, 0x90, 0xe6, 0x3d, 0xb0, 0xa8, 0xfd, 0x3d, 0x25, 0x35, 0x7d, 0x3e, 0x16, 0x9e, 0x17, 0x3e, 0x5b, 0x7e, 0x0f, 0xbe, 0xf9, 0x6c, 0xa8, 0xbd, 0x46, 0xe6, 0x53, 0x3e, 0x83, 0x04, 0x13, 0x3e, 0x33, 0xc9, 0x25, 0x3e, 0xdc, 0x5a, 0x5f, 0x3c, 0xb0, 0x36, 0x26, 0xbe, 0x08, 0x04, 0x1a, 0xbe, 0x94, 0x63, 0x89, 0x3e, 0x25, 0xe8, 0x57, 0xbd, 0xea, 0x51, 0xb3, 0xbb, 0xb8, 0xcd, 0x6e, 0x3e, 0x0a, 0x88, 0x19, 0x3e, 0x40, 0x83, 0xbc, 0xbd, 0xe4, 0x3f, 0x0b, 0xbe, 0x09, 0x7a, 0xb8, 0xbd, 0x87, 0xba, 0xe4, 0xbd, 0x6f, 0x55, 0x5b, 0x3e, 0xed, 0x29, 0xae, 0xbd, 0x2f, 0xd3, 0x5f, 0xbe, 0x33, 0x7e, 0xf8, 0x3d, 0xc2, 0x1a, 0x24, 0x3d, 0xf9, 0xb5, 0x43, 0x3e, 0xe6, 0x45, 0x30, 0xbd, 0x91, 0xd9, 0x54, 0x3d, 0x57, 0xe8, 0x16, 0xbe, 0x67, 0xd9, 0x3d, 0xbe, 0xc6, 0x97, 0x94, 0xbd, 0xb5, 0x49, 0x30, 0xbe, 0x57, 0x17, 0xf9, 0x3d, 0x7a, 0x36, 0xbc, 0xbc, 0x8a, 0x1e, 0x1a, 0xbe, 0x30, 0xf5, 0x71, 0x3e, 0x27, 0x45, 0x9e, 0x3d, 0xe7, 0xb9, 0x89, 0x3e, 0xeb, 0x2d, 0x30, 0xbe, 0xdb, 0x80, 0x1b, 0x3e, 0xea, 0x08, 0x20, 0x3e, 0x9a, 0x8e, 0xa6, 0x3d, 0x36, 0xcc, 0x4a, 0xbe, 0x32, 0xf0, 0x12, 0x3d, 0xc3, 0xb4, 0x91, 0xbe, 0x62, 0xe8, 0x09, 0x3e, 0x3a, 0x68, 0x23, 0xbd, 0xa3, 0xff, 0xcc, 0x3d, 0xda, 0x40, 0x10, 0xbe, 0xc1, 0x7d, 0x6a, 0xbe, 0x92, 0xb3, 0xed, 0x3b, 0x2d, 0x89, 0x03, 0x3d, 0x26, 0x12, 0x07, 0xbd, 0xaf, 0x97, 0x98, 0x3c, 0x0e, 0xea, 0xcb, 0xbd, 0xcb, 0xde, 0xd1, 0xbd, 0x06, 0xd6, 0x60, 0x3e, 0x66, 0x11, 0x6f, 0x3e, 0xb0, 0x75, 0x24, 0x3d, 0x4b, 0xba, 0xf9, 0x3d, 0xf7, 0xed, 0x92, 0xbe, 0x72, 0x64, 0x98, 0x3d, 0xe9, 0xc5, 0x0b, 0x3e, 0x4f, 0x75, 0xa5, 0x3d, 0x69, 0xde, 0x4a, 0x3e, 0x07, 0x8c, 0x23, 0xbe, 0xe4, 0xa2, 0xb3, 0xbc, 0x65, 0xb2, 0xf3, 0xbd, 0x12, 0x52, 0xc2, 0x3d, 0xef, 0x90, 0x83, 0xbd, 0x86, 0xf7, 0x38, 0x3d, 0x93, 0xa5, 0x71, 0x3d, 0x81, 0x4b, 0xc0, 0xbd, 0x4a, 0x23, 0x23, 0x3b, 0xeb, 0x03, 0x88, 0x3d, 0x8c, 0xe2, 0x3b, 0xbe, 0x34, 0x39, 0x8e, 0xbe, 0x64, 0x4e, 0x78, 0x3d, 0xad, 0x5b, 0x93, 0xbd, 0x63, 0x39, 0x90, 0x3e, 0x52, 0x9c, 0xa7, 0x3d, 0x94, 0xa0, 0x78, 0x3e, 0xc7, 0x7e, 0x63, 0xbd, 0x22, 0xc2, 0xde, 0x3d, 0x99, 0xee, 0x47, 0xbe, 0xbc, 0x4d, 0x24, 0x3e, 0xcd, 0x00, 0xc7, 0x3a, 0xd7, 0xc1, 0x6c, 0x3e, 0x51, 0xc3, 0x44, 0x3e, 0x44, 0xbe, 0x95, 0x3e, 0xa8, 0x0a, 0x37, 0xbe, 0xc4, 0x52, 0x32, 0xbe, 0x52, 0xcb, 0x80, 0xbe, 0xd1, 0x5f, 0x85, 0x3e, 0xe0, 0x97, 0x41, 0xbe, 0x81, 0xaa, 0xa4, 0x3e, 0x5f, 0x14, 0xbb, 0xbd, 0xcc, 0x4c, 0x1b, 0xbe, 0xce, 0xda, 0x23, 0x3e, 0x39, 0x9a, 0x9e, 0xbd, 0x9a, 0xb9, 0xb7, 0x3d, 0xdf, 0xa4, 0xfb, 0x3d, 0x47, 0xf0, 0x69, 0xbd, 0xbc, 0xef, 0x81, 0xbb, 0x5a, 0xd5, 0x1a, 0x3e, 0x16, 0x8a, 0x38, 0x3d, 0xfd, 0x91, 0x20, 0xbe, 0x75, 0xef, 0x83, 0x3d, 0x6e, 0xe0, 0xe1, 0xbd, 0x5e, 0x7d, 0x9a, 0x3d, 0xae, 0x8d, 0x5d, 0xbc, 0x2a, 0xcc, 0x30, 0xbd, 0x11, 0x2b, 0xc6, 0x3d, 0xf7, 0x4a, 0x23, 0x3d, 0xe9, 0x52, 0x39, 0xbe, 0x55, 0xab, 0x96, 0xbd, 0x39, 0xe3, 0xa6, 0xbd, 0x02, 0xb7, 0x16, 0x3e, 0x39, 0xe6, 0x81, 0x3b, 0x08, 0x4c, 0xbd, 0xbc, 0xcd, 0x34, 0x71, 0xbd, 0xc9, 0xf4, 0x09, 0x3e, 0xe4, 0x9d, 0x14, 0xbe, 0xb4, 0x55, 0x7b, 0x3c, 0x80, 0x16, 0x7d, 0xbe, 0x10, 0xa5, 0x01, 0x3e, 0x75, 0x24, 0xe7, 0x3d, 0xff, 0xaf, 0xe3, 0x3d, 0xa7, 0xad, 0x0e, 0xbd, 0x1f, 0xdd, 0x0c, 0xbe, 0xda, 0x4a, 0xbd, 0x3d, 0x49, 0xaf, 0x4b, 0xbe, 0x79, 0xfd, 0xf8, 0x3d, 0xbe, 0x82, 0x12, 0xbd, 0x18, 0xf3, 0x7b, 0xbe, 0xd3, 0x00, 0x0a, 0xbe, 0x8b, 0xa0, 0x22, 0xbd, 0xed, 0x4c, 0x5e, 0xbd, 0xf5, 0xba, 0x51, 0x3d, 0xdb, 0x6e, 0x36, 0x3e, 0x1f, 0xb7, 0x30, 0xbd, 0x0b, 0x7f, 0x2d, 0x3d, 0xfb, 0x2e, 0x31, 0xbe, 0xf3, 0x88, 0x1f, 0x3d, 0x37, 0xb8, 0x95, 0xbe, 0xc2, 0x29, 0x6f, 0xbd, 0x37, 0x48, 0x49, 0x3e, 0x9e, 0xc7, 0x44, 0xbe, 0x96, 0x56, 0xa0, 0x3b, 0x04, 0x27, 0x32, 0x3e, 0x58, 0x61, 0x53, 0x3d, 0xa1, 0x3e, 0x6d, 0xbe, 0x03, 0x25, 0xb5, 0xbd, 0xf5, 0x2d, 0x0d, 0xbd, 0xf4, 0x08, 0xa1, 0xbd, 0x29, 0x7b, 0x3a, 0xbd, 0xbc, 0x19, 0x2d, 0xbd, 0xef, 0xcf, 0xb6, 0x3d, 0xe7, 0x07, 0x28, 0xbe, 0x83, 0x54, 0x80, 0x3e, 0x55, 0xa1, 0x1a, 0x3d, 0x4b, 0x69, 0x0e, 0x3e, 0xa0, 0x93, 0x70, 0x3e, 0xf8, 0xa4, 0xcc, 0x3d, 0xce, 0x6b, 0xe9, 0x3c, 0x78, 0x1a, 0x89, 0x3d, 0x62, 0xee, 0xa0, 0x3c, 0x9a, 0x98, 0x0c, 0x3e, 0x8a, 0xa3, 0x6a, 0x3d, 0x95, 0x94, 0x8e, 0xbe, 0x55, 0xbb, 0x46, 0x3c, 0xdb, 0x46, 0x14, 0xbd, 0x63, 0x2c, 0xa2, 0xbd, 0x98, 0xbc, 0x1a, 0x3e, 0x98, 0xe1, 0x9e, 0x3d, 0x89, 0xab, 0x0b, 0x3c, 0x62, 0x88, 0x20, 0xbc, 0xf1, 0x23, 0xd7, 0x3d, 0x93, 0x6b, 0xd8, 0xbb, 0x5c, 0xe8, 0x62, 0x3e, 0x05, 0x32, 0xb8, 0x3d, 0x73, 0x6e, 0x57, 0xbd, 0xe1, 0x3e, 0xf3, 0xbc, 0x4b, 0xe8, 0x80, 0xbe, 0xfd, 0xaa, 0x9c, 0xbd, 0xcb, 0x0b, 0x13, 0xbe, 0x4d, 0xfa, 0x52, 0x3e, 0x4a, 0xac, 0x4d, 0xbe, 0xca, 0xab, 0x75, 0xbd, 0x82, 0x85, 0xc5, 0x3a, 0x23, 0xf1, 0x39, 0xbe, 0x8f, 0xe4, 0xda, 0xbd, 0xe5, 0xbe, 0xfd, 0x3d, 0xe4, 0x76, 0x8e, 0x3e, 0x9b, 0xd6, 0x44, 0xbe, 0xdc, 0x4a, 0xc2, 0x3b, 0x68, 0x5b, 0xb5, 0x3d, 0x91, 0xa7, 0x55, 0xbe, 0x72, 0x92, 0xb7, 0x3d, 0x27, 0x3f, 0x11, 0xbe, 0x89, 0xc1, 0x36, 0xbc, 0xf1, 0x4b, 0x54, 0xbe, 0xda, 0xc3, 0x64, 0x3d, 0x9b, 0x54, 0x16, 0xbe, 0xb7, 0x8b, 0x51, 0xbe, 0xf9, 0xfa, 0x3b, 0x3e, 0x10, 0x66, 0xd5, 0x3d, 0x7b, 0x56, 0xf7, 0xbd, 0x93, 0x6d, 0xc8, 0x3d, 0x77, 0x98, 0x68, 0x3e, 0xbf, 0x93, 0x06, 0xbe, 0x52, 0xf8, 0x31, 0x3d, 0x84, 0xb1, 0x46, 0xbe, 0x41, 0x0f, 0x47, 0xbe, 0xbc, 0x88, 0x5b, 0xbd, 0x06, 0xa1, 0xee, 0x3d, 0x3d, 0xd1, 0xef, 0x3d, 0xe6, 0x4b, 0x1f, 0xbe, 0xe7, 0x48, 0x02, 0x3d, 0x3a, 0x42, 0x82, 0xbd, 0x85, 0x69, 0x90, 0x3d, 0x53, 0xd4, 0x57, 0x3d, 0x38, 0x01, 0xd3, 0x3d, 0xab, 0xf7, 0x20, 0x3e, 0xac, 0xbf, 0x76, 0xbe, 0x54, 0x69, 0x9d, 0xbd, 0xa3, 0xfd, 0xbc, 0xbd, 0xa3, 0x4c, 0x7c, 0xbd, 0x9c, 0xd7, 0xe4, 0x3b, 0x74, 0xd2, 0x0e, 0xbe, 0x6f, 0xd4, 0x14, 0x3e, 0x8e, 0x41, 0x95, 0x3c, 0x1b, 0xd2, 0x0e, 0xbe, 0x0c, 0x7e, 0x79, 0xbd, 0xcc, 0x68, 0x1f, 0xbd, 0xce, 0x4c, 0xb6, 0xbd, 0x5c, 0x86, 0x24, 0xbc, 0x77, 0x08, 0x72, 0x3e, 0x1d, 0x2a, 0x4d, 0xbd, 0xff, 0xad, 0xb9, 0x3d, 0x96, 0xb6, 0x65, 0xbc, 0xd7, 0x7a, 0x7b, 0xbd, 0x75, 0x22, 0x86, 0x3e, 0x50, 0xc2, 0x15, 0x3e, 0x3e, 0x11, 0xee, 0x3d, 0x03, 0x46, 0x0b, 0xbe, 0x99, 0x08, 0xa5, 0xbd, 0xe7, 0xf6, 0xda, 0x3d, 0xf2, 0xe8, 0x79, 0xbe, 0xfc, 0x25, 0xbc, 0xbd, 0x7b, 0xc2, 0x90, 0xbd, 0xfa, 0xa4, 0x2b, 0x3e, 0xae, 0xa1, 0xa2, 0xbc, 0x14, 0x3a, 0x06, 0xbd, 0x81, 0xe3, 0xa6, 0x3d, 0xc8, 0xa3, 0x81, 0x3e, 0xe7, 0x99, 0x74, 0x3c, 0x8d, 0x4f, 0x19, 0xbe, 0x8d, 0xd8, 0x5e, 0x3d, 0xd7, 0xb7, 0x40, 0xbd, 0xef, 0x2a, 0x05, 0xbd, 0xed, 0x85, 0x21, 0xbe, 0x6e, 0xd5, 0x48, 0xbe, 0xde, 0x99, 0x1d, 0xbe, 0x78, 0x42, 0x4d, 0xbd, 0x81, 0xb2, 0xec, 0x3d, 0x99, 0x34, 0x17, 0xbe, 0x5a, 0xfe, 0xff, 0xff, 0x04, 0x00, 0x00, 0x00, 0x0c, 0x00, 0x00, 0x00, 0xff, 0xff, 0xff, 0xff, 0x0a, 0x00, 0x00, 0x00, 0x10, 0x00, 0x00, 0x00, 0x72, 0xfe, 0xff, 0xff, 0x04, 0x00, 0x00, 0x00, 0x0c, 0x00, 0x00, 0x00, 0xff, 0xff, 0xff, 0xff, 0x0a, 0x00, 0x00, 0x00, 0x20, 0x00, 0x00, 0x00, 0x8a, 0xfe, 0xff, 0xff, 0x04, 0x00, 0x00, 0x00, 0x40, 0x00, 0x00, 0x00, 0x4a, 0x32, 0x5a, 0x3d, 0xf7, 0xa4, 0xba, 0x3d, 0x01, 0x05, 0xc9, 0x3d, 0xc0, 0xf6, 0xe0, 0x3d, 0x09, 0x85, 0x21, 0x3e, 0x24, 0xa5, 0xe7, 0x3d, 0xf0, 0x39, 0x13, 0x3e, 0x7a, 0x7d, 0x98, 0x3d, 0xf2, 0xbd, 0x1f, 0x3e, 0xdc, 0x3e, 0xb5, 0x3d, 0x6d, 0xc1, 0x58, 0x3e, 0x1b, 0x42, 0x00, 0x3e, 0x27, 0xb0, 0x5f, 0x3e, 0x2f, 0xd9, 0x2e, 0x3e, 0x30, 0x26, 0x14, 0x3e, 0xd3, 0x3c, 0x2a, 0x3e, 0xd6, 0xfe, 0xff, 0xff, 0x04, 0x00, 0x00, 0x00, 0x80, 0x00, 0x00, 0x00, 0x3a, 0x67, 0x5c, 0x3e, 0x09, 0x13, 0x2c, 0x3d, 0x36, 0xe6, 0xd3, 0xbd, 0x04, 0x67, 0xb2, 0x3d, 0x56, 0xdf, 0x14, 0x3e, 0xff, 0x75, 0x4c, 0x3d, 0xc5, 0x6c, 0x12, 0x3e, 0x5d, 0xeb, 0x9b, 0x3d, 0x13, 0x18, 0xae, 0x3d, 0x68, 0xf0, 0x72, 0x3d, 0x6e, 0x9e, 0x90, 0x3d, 0x21, 0x4e, 0x15, 0x3c, 0x90, 0xd6, 0x86, 0x3d, 0xef, 0xe5, 0x24, 0x3c, 0xb9, 0xa9, 0xf7, 0x3d, 0xcb, 0xce, 0x1b, 0xbd, 0x58, 0x99, 0x7f, 0x3d, 0x68, 0x62, 0x61, 0x3c, 0x2b, 0xf5, 0xe6, 0x3d, 0xed, 0x8b, 0x8e, 0x3d, 0xbc, 0x0d, 0x75, 0x3d, 0xfc, 0x38, 0x65, 0x3c, 0x6d, 0x36, 0x16, 0x3e, 0x28, 0x44, 0xa7, 0xbb, 0x61, 0x4d, 0x2d, 0x3d, 0x11, 0x3c, 0xa9, 0xbc, 0x0d, 0x52, 0x8a, 0x3d, 0x90, 0xb0, 0x08, 0x3e, 0x5c, 0x66, 0x88, 0x3d, 0x6e, 0xec, 0x7a, 0xbd, 0xb1, 0x32, 0x5a, 0xbd, 0xa1, 0x1c, 0x1c, 0xbd, 0x1c, 0xf3, 0xff, 0xff, 0x20, 0xf3, 0xff, 0xff, 0x0f, 0x00, 0x00, 0x00, 0x4d, 0x4c, 0x49, 0x52, 0x20, 0x43, 0x6f, 0x6e, 0x76, 0x65, 0x72, 0x74, 0x65, 0x64, 0x2e, 0x00, 0x01, 0x00, 0x00, 0x00, 0x14, 0x00, 0x00, 0x00, 0x00, 0x00, 0x0e, 0x00, 0x18, 0x00, 0x14, 0x00, 0x10, 0x00, 0x0c, 0x00, 0x08, 0x00, 0x04, 0x00, 0x0e, 0x00, 0x00, 0x00, 0x14, 0x00, 0x00, 0x00, 0x1c, 0x00, 0x00, 0x00, 0x78, 0x02, 0x00, 0x00, 0x7c, 0x02, 0x00, 0x00, 0x80, 0x02, 0x00, 0x00, 0x04, 0x00, 0x00, 0x00, 0x6d, 0x61, 0x69, 0x6e, 0x00, 0x00, 0x00, 0x00, 0x0a, 0x00, 0x00, 0x00, 0x30, 0x02, 0x00, 0x00, 0xd0, 0x01, 0x00, 0x00, 0x98, 0x01, 0x00, 0x00, 0x5c, 0x01, 0x00, 0x00, 0x18, 0x01, 0x00, 0x00, 0xf0, 0x00, 0x00, 0x00, 0xbc, 0x00, 0x00, 0x00, 0x78, 0x00, 0x00, 0x00, 0x40, 0x00, 0x00, 0x00, 0x04, 0x00, 0x00, 0x00, 0x62, 0xfe, 0xff, 0xff, 0x1c, 0x00, 0x00, 0x00, 0x00, 0x00, 0x00, 0x09, 0x1c, 0x00, 0x00, 0x00, 0x20, 0x00, 0x00, 0x00, 0x05, 0x00, 0x00, 0x00, 0x00, 0x00, 0x06, 0x00, 0x08, 0x00, 0x04, 0x00, 0x06, 0x00, 0x00, 0x00, 0x00, 0x00, 0x80, 0x3f, 0x01, 0x00, 0x00, 0x00, 0x16, 0x00, 0x00, 0x00, 0x01, 0x00, 0x00, 0x00, 0x15, 0x00, 0x00, 0x00, 0x9a, 0xfe, 0xff, 0xff, 0x14, 0x00, 0x00, 0x00, 0x00, 0x00, 0x00, 0x08, 0x10, 0x00, 0x00, 0x00, 0x14, 0x00, 0x00, 0x00, 0x04, 0x00, 0x00, 0x00, 0xf0, 0xf3, 0xff, 0xff, 0x01, 0x00, 0x00, 0x00, 0x15, 0x00, 0x00, 0x00, 0x03, 0x00, 0x00, 0x00, 0x14, 0x00, 0x00, 0x00, 0x07, 0x00, 0x00, 0x00, 0x0a, 0x00, 0x00, 0x00, 0xce, 0xfe, 0xff, 0xff, 0x1c, 0x00, 0x00, 0x00, 0x00, 0x00, 0x00, 0x08, 0x1c, 0x00, 0x00, 0x00, 0x20, 0x00, 0x00, 0x00, 0x04, 0x00, 0x00, 0x00, 0x00, 0x00, 0x06, 0x00, 0x08, 0x00, 0x07, 0x00, 0x06, 0x00, 0x00, 0x00, 0x00, 0x00, 0x00, 0x01, 0x01, 0x00, 0x00, 0x00, 0x14, 0x00, 0x00, 0x00, 0x03, 0x00, 0x00, 0x00, 0x13, 0x00, 0x00, 0x00, 0x08, 0x00, 0x00, 0x00, 0x09, 0x00, 0x00, 0x00, 0x0e, 0xff, 0xff, 0xff, 0x14, 0x00, 0x00, 0x00, 0x00, 0x00, 0x00, 0x1b, 0x10, 0x00, 0x00, 0x00, 0x14, 0x00, 0x00, 0x00, 0x03, 0x00, 0x00, 0x00, 0x64, 0xf4, 0xff, 0xff, 0x01, 0x00, 0x00, 0x00, 0x13, 0x00, 0x00, 0x00, 0x02, 0x00, 0x00, 0x00, 0x12, 0x00, 0x00, 0x00, 0x0c, 0x00, 0x00, 0x00, 0x6e, 0xff, 0xff, 0xff, 0x0c, 0x00, 0x00, 0x00, 0x10, 0x00, 0x00, 0x00, 0x02, 0x00, 0x00, 0x00, 0x01, 0x00, 0x00, 0x00, 0x12, 0x00, 0x00, 0x00, 0x02, 0x00, 0x00, 0x00, 0x11, 0x00, 0x00, 0x00, 0x03, 0x00, 0x00, 0x00, 0x62, 0xff, 0xff, 0xff, 0x14, 0x00, 0x00, 0x00, 0x00, 0x00, 0x00, 0x01, 0x1c, 0x00, 0x00, 0x00, 0x20, 0x00, 0x00, 0x00, 0x01, 0x00, 0x00, 0x00, 0x54, 0xff, 0xff, 0xff, 0x00, 0x00, 0x00, 0x01, 0x01, 0x00, 0x00, 0x00, 0x01, 0x00, 0x00, 0x00, 0x01, 0x00, 0x00, 0x00, 0x11, 0x00, 0x00, 0x00, 0x03, 0x00, 0x00, 0x00, 0x10, 0x00, 0x00, 0x00, 0x05, 0x00, 0x00, 0x00, 0x01, 0x00, 0x00, 0x00, 0x46, 0xff, 0xff, 0xff, 0x10, 0x00, 0x00, 0x00, 0x00, 0x00, 0x00, 0x34, 0x0c, 0x00, 0x00, 0x00, 0x10, 0x00, 0x00, 0x00, 0xf4, 0xf4, 0xff, 0xff, 0x01, 0x00, 0x00, 0x00, 0x10, 0x00, 0x00, 0x00, 0x02, 0x00, 0x00, 0x00, 0x0f, 0x00, 0x00, 0x00, 0x0b, 0x00, 0x00, 0x00, 0x00, 0x00, 0x0a, 0x00, 0x10, 0x00, 0x0c, 0x00, 0x08, 0x00, 0x04, 0x00, 0x0a, 0x00, 0x00, 0x00, 0x0c, 0x00, 0x00, 0x00, 0x10, 0x00, 0x00, 0x00, 0x02, 0x00, 0x00, 0x00, 0x01, 0x00, 0x00, 0x00, 0x0f, 0x00, 0x00, 0x00, 0x02, 0x00, 0x00, 0x00, 0x0e, 0x00, 0x00, 0x00, 0x04, 0x00, 0x00, 0x00, 0x00, 0x00, 0x0e, 0x00, 0x18, 0x00, 0x14, 0x00, 0x10, 0x00, 0x0c, 0x00, 0x0b, 0x00, 0x04, 0x00, 0x0e, 0x00, 0x00, 0x00, 0x20, 0x00, 0x00, 0x00, 0x00, 0x00, 0x00, 0x01, 0x28, 0x00, 0x00, 0x00, 0x2c, 0x00, 0x00, 0x00, 0x01, 0x00, 0x00, 0x00, 0x0c, 0x00, 0x10, 0x00, 0x00, 0x00, 0x0c, 0x00, 0x08, 0x00, 0x07, 0x00, 0x0c, 0x00, 0x00, 0x00, 0x00, 0x00, 0x00, 0x01, 0x01, 0x00, 0x00, 0x00, 0x01, 0x00, 0x00, 0x00, 0x01, 0x00, 0x00, 0x00, 0x0e, 0x00, 0x00, 0x00, 0x03, 0x00, 0x00, 0x00, 0x0d, 0x00, 0x00, 0x00, 0x06, 0x00, 0x00, 0x00, 0x02, 0x00, 0x00, 0x00, 0x00, 0x00, 0x0e, 0x00, 0x14, 0x00, 0x00, 0x00, 0x10, 0x00, 0x0c, 0x00, 0x0b, 0x00, 0x04, 0x00, 0x0e, 0x00, 0x00, 0x00, 0x10, 0x00, 0x00, 0x00, 0x00, 0x00, 0x00, 0x34, 0x0c, 0x00, 0x00, 0x00, 0x10, 0x00, 0x00, 0x00, 0xbc, 0xf5, 0xff, 0xff, 0x01, 0x00, 0x00, 0x00, 0x0d, 0x00, 0x00, 0x00, 0x02, 0x00, 0x00, 0x00, 0x00, 0x00, 0x00, 0x00, 0x0b, 0x00, 0x00, 0x00, 0x01, 0x00, 0x00, 0x00, 0x16, 0x00, 0x00, 0x00, 0x01, 0x00, 0x00, 0x00, 0x00, 0x00, 0x00, 0x00, 0x17, 0x00, 0x00, 0x00, 0xec, 0x09, 0x00, 0x00, 0x98, 0x09, 0x00, 0x00, 0x44, 0x09, 0x00, 0x00, 0x04, 0x09, 0x00, 0x00, 0xac, 0x08, 0x00, 0x00, 0x64, 0x08, 0x00, 0x00, 0x1c, 0x08, 0x00, 0x00, 0xdc, 0x07, 0x00, 0x00, 0x9c, 0x07, 0x00, 0x00, 0x60, 0x07, 0x00, 0x00, 0x24, 0x07, 0x00, 0x00, 0xe4, 0x06, 0x00, 0x00, 0x78, 0x06, 0x00, 0x00, 0xf8, 0x05, 0x00, 0x00, 0x04, 0x05, 0x00, 0x00, 0x38, 0x04, 0x00, 0x00, 0xb8, 0x03, 0x00, 0x00, 0xb8, 0x02, 0x00, 0x00, 0xe4, 0x01, 0x00, 0x00, 0x74, 0x01, 0x00, 0x00, 0xe0, 0x00, 0x00, 0x00, 0x60, 0x00, 0x00, 0x00, 0x04, 0x00, 0x00, 0x00, 0x86, 0xf6, 0xff, 0xff, 0x00, 0x00, 0x00, 0x01, 0x14, 0x00, 0x00, 0x00, 0x1c, 0x00, 0x00, 0x00, 0x1c, 0x00, 0x00, 0x00, 0x17, 0x00, 0x00, 0x00, 0x34, 0x00, 0x00, 0x00, 0x02, 0x00, 0x00, 0x00, 0xff, 0xff, 0xff, 0xff, 0x04, 0x00, 0x00, 0x00, 0x6c, 0xf6, 0xff, 0xff, 0x1b, 0x00, 0x00, 0x00, 0x53, 0x74, 0x61, 0x74, 0x65, 0x66, 0x75, 0x6c, 0x50, 0x61, 0x72, 0x74, 0x69, 0x74, 0x69, 0x6f, 0x6e, 0x65, 0x64, 0x43, 0x61, 0x6c, 0x6c, 0x5f, 0x31, 0x3a, 0x30, 0x00, 0x02, 0x00, 0x00, 0x00, 0x01, 0x00, 0x00, 0x00, 0x04, 0x00, 0x00, 0x00, 0xde, 0xf6, 0xff, 0xff, 0x00, 0x00, 0x00, 0x01, 0x14, 0x00, 0x00, 0x00, 0x1c, 0x00, 0x00, 0x00, 0x1c, 0x00, 0x00, 0x00, 0x16, 0x00, 0x00, 0x00, 0x58, 0x00, 0x00, 0x00, 0x02, 0x00, 0x00, 0x00, 0xff, 0xff, 0xff, 0xff, 0x04, 0x00, 0x00, 0x00, 0xc4, 0xf6, 0xff, 0xff, 0x3c, 0x00, 0x00, 0x00, 0x66, 0x75, 0x6e, 0x63, 0x74, 0x69, 0x6f, 0x6e, 0x61, 0x6c, 0x5f, 0x31, 0x2f, 0x64, 0x65, 0x6e, 0x73, 0x65, 0x5f, 0x31, 0x5f, 0x32, 0x2f, 0x4d, 0x61, 0x74, 0x4d, 0x75, 0x6c, 0x3b, 0x66, 0x75, 0x6e, 0x63, 0x74, 0x69, 0x6f, 0x6e, 0x61, 0x6c, 0x5f, 0x31, 0x2f, 0x64, 0x65, 0x6e, 0x73, 0x65, 0x5f, 0x31, 0x5f, 0x32, 0x2f, 0x42, 0x69, 0x61, 0x73, 0x41, 0x64, 0x64, 0x00, 0x00, 0x00, 0x00, 0x02, 0x00, 0x00, 0x00, 0x01, 0x00, 0x00, 0x00, 0x04, 0x00, 0x00, 0x00, 0x5a, 0xf7, 0xff, 0xff, 0x00, 0x00, 0x00, 0x01, 0x14, 0x00, 0x00, 0x00, 0x1c, 0x00, 0x00, 0x00, 0x1c, 0x00, 0x00, 0x00, 0x15, 0x00, 0x00, 0x00, 0x6c, 0x00, 0x00, 0x00, 0x02, 0x00, 0x00, 0x00, 0xff, 0xff, 0xff, 0xff, 0x20, 0x00, 0x00, 0x00, 0x40, 0xf7, 0xff, 0xff, 0x52, 0x00, 0x00, 0x00, 0x66, 0x75, 0x6e, 0x63, 0x74, 0x69, 0x6f, 0x6e, 0x61, 0x6c, 0x5f, 0x31, 0x2f, 0x64, 0x65, 0x6e, 0x73, 0x65, 0x5f, 0x31, 0x2f, 0x4d, 0x61, 0x74, 0x4d, 0x75, 0x6c, 0x3b, 0x66, 0x75, 0x6e, 0x63, 0x74, 0x69, 0x6f, 0x6e, 0x61, 0x6c, 0x5f, 0x31, 0x2f, 0x64, 0x65, 0x6e, 0x73, 0x65, 0x5f, 0x31, 0x2f, 0x52, 0x65, 0x6c, 0x75, 0x3b, 0x66, 0x75, 0x6e, 0x63, 0x74, 0x69, 0x6f, 0x6e, 0x61, 0x6c, 0x5f, 0x31, 0x2f, 0x64, 0x65, 0x6e, 0x73, 0x65, 0x5f, 0x31, 0x2f, 0x42, 0x69, 0x61, 0x73, 0x41, 0x64, 0x64, 0x00, 0x00, 0x02, 0x00, 0x00, 0x00, 0x01, 0x00, 0x00, 0x00, 0x20, 0x00, 0x00, 0x00, 0xea, 0xf7, 0xff, 0xff, 0x00, 0x00, 0x00, 0x01, 0x14, 0x00, 0x00, 0x00, 0x1c, 0x00, 0x00, 0x00, 0x1c, 0x00, 0x00, 0x00, 0x14, 0x00, 0x00, 0x00, 0x48, 0x00, 0x00, 0x00, 0x02, 0x00, 0x00, 0x00, 0xff, 0xff, 0xff, 0xff, 0x20, 0x00, 0x00, 0x00, 0xd0, 0xf7, 0xff, 0xff, 0x2c, 0x00, 0x00, 0x00, 0x66, 0x75, 0x6e, 0x63, 0x74, 0x69, 0x6f, 0x6e, 0x61, 0x6c, 0x5f, 0x31, 0x2f, 0x67, 0x6c, 0x6f, 0x62, 0x61, 0x6c, 0x5f, 0x61, 0x76, 0x65, 0x72, 0x61, 0x67, 0x65, 0x5f, 0x70, 0x6f, 0x6f, 0x6c, 0x69, 0x6e, 0x67, 0x31, 0x64, 0x5f, 0x31, 0x2f, 0x4d, 0x65, 0x61, 0x6e, 0x00, 0x00, 0x00, 0x00, 0x02, 0x00, 0x00, 0x00, 0x01, 0x00, 0x00, 0x00, 0x20, 0x00, 0x00, 0x00, 0x56, 0xf8, 0xff, 0xff, 0x00, 0x00, 0x00, 0x01, 0x14, 0x00, 0x00, 0x00, 0x20, 0x00, 0x00, 0x00, 0x20, 0x00, 0x00, 0x00, 0x13, 0x00, 0x00, 0x00, 0xa8, 0x00, 0x00, 0x00, 0x03, 0x00, 0x00, 0x00, 0xff, 0xff, 0xff, 0xff, 0x0a, 0x00, 0x00, 0x00, 0x20, 0x00, 0x00, 0x00, 0x40, 0xf8, 0xff, 0xff, 0x88, 0x00, 0x00, 0x00, 0x66, 0x75, 0x6e, 0x63, 0x74, 0x69, 0x6f, 0x6e, 0x61, 0x6c, 0x5f, 0x31, 0x2f, 0x63, 0x6f, 0x6e, 0x76, 0x31, 0x64, 0x5f, 0x31, 0x5f, 0x32, 0x2f, 0x52, 0x65, 0x6c, 0x75, 0x3b, 0x66, 0x75, 0x6e, 0x63, 0x74, 0x69, 0x6f, 0x6e, 0x61, 0x6c, 0x5f, 0x31, 0x2f, 0x63, 0x6f, 0x6e, 0x76, 0x31, 0x64, 0x5f, 0x31, 0x5f, 0x32, 0x2f, 0x42, 0x69, 0x61, 0x73, 0x41, 0x64, 0x64, 0x3b, 0x66, 0x75, 0x6e, 0x63, 0x74, 0x69, 0x6f, 0x6e, 0x61, 0x6c, 0x5f, 0x31, 0x2f, 0x63, 0x6f, 0x6e, 0x76, 0x31, 0x64, 0x5f, 0x31, 0x5f, 0x32, 0x2f, 0x63, 0x6f, 0x6e, 0x76, 0x6f, 0x6c, 0x75, 0x74, 0x69, 0x6f, 0x6e, 0x2f, 0x53, 0x71, 0x75, 0x65, 0x65, 0x7a, 0x65, 0x3b, 0x66, 0x75, 0x6e, 0x63, 0x74, 0x69, 0x6f, 0x6e, 0x61, 0x6c, 0x5f, 0x31, 0x2f, 0x63, 0x6f, 0x6e, 0x76, 0x31, 0x64, 0x5f, 0x31, 0x5f, 0x32, 0x2f, 0x53, 0x71, 0x75, 0x65, 0x65, 0x7a, 0x65, 0x00, 0x00, 0x00, 0x00, 0x03, 0x00, 0x00, 0x00, 0x01, 0x00, 0x00, 0x00, 0x0a, 0x00, 0x00, 0x00, 0x20, 0x00, 0x00, 0x00, 0x26, 0xf9, 0xff, 0xff, 0x00, 0x00, 0x00, 0x01, 0x14, 0x00, 0x00, 0x00, 0x24, 0x00, 0x00, 0x00, 0x24, 0x00, 0x00, 0x00, 0x12, 0x00, 0x00, 0x00, 0xd0, 0x00, 0x00, 0x00, 0x04, 0x00, 0x00, 0x00, 0xff, 0xff, 0xff, 0xff, 0x01, 0x00, 0x00, 0x00, 0x0a, 0x00, 0x00, 0x00, 0x20, 0x00, 0x00, 0x00, 0x14, 0xf9, 0xff, 0xff, 0xac, 0x00, 0x00, 0x00, 0x66, 0x75, 0x6e, 0x63, 0x74, 0x69, 0x6f, 0x6e, 0x61, 0x6c, 0x5f, 0x31, 0x2f, 0x63, 0x6f, 0x6e, 0x76, 0x31, 0x64, 0x5f, 0x31, 0x5f, 0x32, 0x2f, 0x52, 0x65, 0x6c, 0x75, 0x3b, 0x66, 0x75, 0x6e, 0x63, 0x74, 0x69, 0x6f, 0x6e, 0x61, 0x6c, 0x5f, 0x31, 0x2f, 0x63, 0x6f, 0x6e, 0x76, 0x31, 0x64, 0x5f, 0x31, 0x5f, 0x32, 0x2f, 0x42, 0x69, 0x61, 0x73, 0x41, 0x64, 0x64, 0x3b, 0x66, 0x75, 0x6e, 0x63, 0x74, 0x69, 0x6f, 0x6e, 0x61, 0x6c, 0x5f, 0x31, 0x2f, 0x63, 0x6f, 0x6e, 0x76, 0x31, 0x64, 0x5f, 0x31, 0x5f, 0x32, 0x2f, 0x63, 0x6f, 0x6e, 0x76, 0x6f, 0x6c, 0x75, 0x74, 0x69, 0x6f, 0x6e, 0x2f, 0x53, 0x71, 0x75, 0x65, 0x65, 0x7a, 0x65, 0x3b, 0x66, 0x75, 0x6e, 0x63, 0x74, 0x69, 0x6f, 0x6e, 0x61, 0x6c, 0x5f, 0x31, 0x2f, 0x63, 0x6f, 0x6e, 0x76, 0x31, 0x64, 0x5f, 0x31, 0x5f, 0x32, 0x2f, 0x53, 0x71, 0x75, 0x65, 0x65, 0x7a, 0x65, 0x3b, 0x66, 0x75, 0x6e, 0x63, 0x74, 0x69, 0x6f, 0x6e, 0x61, 0x6c, 0x5f, 0x31, 0x2f, 0x63, 0x6f, 0x6e, 0x76, 0x31, 0x64, 0x5f, 0x31, 0x5f, 0x32, 0x2f, 0x63, 0x6f, 0x6e, 0x76, 0x6f, 0x6c, 0x75, 0x74, 0x69, 0x6f, 0x6e, 0x00, 0x00, 0x00, 0x00, 0x04, 0x00, 0x00, 0x00, 0x01, 0x00, 0x00, 0x00, 0x01, 0x00, 0x00, 0x00, 0x0a, 0x00, 0x00, 0x00, 0x20, 0x00, 0x00, 0x00, 0x22, 0xfa, 0xff, 0xff, 0x00, 0x00, 0x00, 0x01, 0x14, 0x00, 0x00, 0x00, 0x24, 0x00, 0x00, 0x00, 0x24, 0x00, 0x00, 0x00, 0x11, 0x00, 0x00, 0x00, 0x50, 0x00, 0x00, 0x00, 0x04, 0x00, 0x00, 0x00, 0xff, 0xff, 0xff, 0xff, 0x01, 0x00, 0x00, 0x00, 0x0a, 0x00, 0x00, 0x00, 0x10, 0x00, 0x00, 0x00, 0x10, 0xfa, 0xff, 0xff, 0x2e, 0x00, 0x00, 0x00, 0x66, 0x75, 0x6e, 0x63, 0x74, 0x69, 0x6f, 0x6e, 0x61, 0x6c, 0x5f, 0x31, 0x2f, 0x63, 0x6f, 0x6e, 0x76, 0x31, 0x64, 0x5f, 0x31, 0x5f, 0x32, 0x2f, 0x63, 0x6f, 0x6e, 0x76, 0x6f, 0x6c, 0x75, 0x74, 0x69, 0x6f, 0x6e, 0x2f, 0x45, 0x78, 0x70, 0x61, 0x6e, 0x64, 0x44, 0x69, 0x6d, 0x73, 0x00, 0x00, 0x04, 0x00, 0x00, 0x00, 0x01, 0x00, 0x00, 0x00, 0x01, 0x00, 0x00, 0x00, 0x0a, 0x00, 0x00, 0x00, 0x10, 0x00, 0x00, 0x00, 0x9e, 0xfa, 0xff, 0xff, 0x00, 0x00, 0x00, 0x01, 0x14, 0x00, 0x00, 0x00, 0x20, 0x00, 0x00, 0x00, 0x20, 0x00, 0x00, 0x00, 0x10, 0x00, 0x00, 0x00, 0xa0, 0x00, 0x00, 0x00, 0x03, 0x00, 0x00, 0x00, 0xff, 0xff, 0xff, 0xff, 0x0a, 0x00, 0x00, 0x00, 0x10, 0x00, 0x00, 0x00, 0x88, 0xfa, 0xff, 0xff, 0x80, 0x00, 0x00, 0x00, 0x66, 0x75, 0x6e, 0x63, 0x74, 0x69, 0x6f, 0x6e, 0x61, 0x6c, 0x5f, 0x31, 0x2f, 0x63, 0x6f, 0x6e, 0x76, 0x31, 0x64, 0x5f, 0x31, 0x2f, 0x52, 0x65, 0x6c, 0x75, 0x3b, 0x66, 0x75, 0x6e, 0x63, 0x74, 0x69, 0x6f, 0x6e, 0x61, 0x6c, 0x5f, 0x31, 0x2f, 0x63, 0x6f, 0x6e, 0x76, 0x31, 0x64, 0x5f, 0x31, 0x2f, 0x42, 0x69, 0x61, 0x73, 0x41, 0x64, 0x64, 0x3b, 0x66, 0x75, 0x6e, 0x63, 0x74, 0x69, 0x6f, 0x6e, 0x61, 0x6c, 0x5f, 0x31, 0x2f, 0x63, 0x6f, 0x6e, 0x76, 0x31, 0x64, 0x5f, 0x31, 0x2f, 0x63, 0x6f, 0x6e, 0x76, 0x6f, 0x6c, 0x75, 0x74, 0x69, 0x6f, 0x6e, 0x2f, 0x53, 0x71, 0x75, 0x65, 0x65, 0x7a, 0x65, 0x3b, 0x66, 0x75, 0x6e, 0x63, 0x74, 0x69, 0x6f, 0x6e, 0x61, 0x6c, 0x5f, 0x31, 0x2f, 0x63, 0x6f, 0x6e, 0x76, 0x31, 0x64, 0x5f, 0x31, 0x2f, 0x53, 0x71, 0x75, 0x65, 0x65, 0x7a, 0x65, 0x00, 0x00, 0x00, 0x00, 0x03, 0x00, 0x00, 0x00, 0x01, 0x00, 0x00, 0x00, 0x0a, 0x00, 0x00, 0x00, 0x10, 0x00, 0x00, 0x00, 0x66, 0xfb, 0xff, 0xff, 0x00, 0x00, 0x00, 0x01, 0x14, 0x00, 0x00, 0x00, 0x24, 0x00, 0x00, 0x00, 0x24, 0x00, 0x00, 0x00, 0x0f, 0x00, 0x00, 0x00, 0xc4, 0x00, 0x00, 0x00, 0x04, 0x00, 0x00, 0x00, 0xff, 0xff, 0xff, 0xff, 0x01, 0x00, 0x00, 0x00, 0x0a, 0x00, 0x00, 0x00, 0x10, 0x00, 0x00, 0x00, 0x54, 0xfb, 0xff, 0xff, 0xa2, 0x00, 0x00, 0x00, 0x66, 0x75, 0x6e, 0x63, 0x74, 0x69, 0x6f, 0x6e, 0x61, 0x6c, 0x5f, 0x31, 0x2f, 0x63, 0x6f, 0x6e, 0x76, 0x31, 0x64, 0x5f, 0x31, 0x2f, 0x52, 0x65, 0x6c, 0x75, 0x3b, 0x66, 0x75, 0x6e, 0x63, 0x74, 0x69, 0x6f, 0x6e, 0x61, 0x6c, 0x5f, 0x31, 0x2f, 0x63, 0x6f, 0x6e, 0x76, 0x31, 0x64, 0x5f, 0x31, 0x2f, 0x42, 0x69, 0x61, 0x73, 0x41, 0x64, 0x64, 0x3b, 0x66, 0x75, 0x6e, 0x63, 0x74, 0x69, 0x6f, 0x6e, 0x61, 0x6c, 0x5f, 0x31, 0x2f, 0x63, 0x6f, 0x6e, 0x76, 0x31, 0x64, 0x5f, 0x31, 0x2f, 0x63, 0x6f, 0x6e, 0x76, 0x6f, 0x6c, 0x75, 0x74, 0x69, 0x6f, 0x6e, 0x2f, 0x53, 0x71, 0x75, 0x65, 0x65, 0x7a, 0x65, 0x3b, 0x66, 0x75, 0x6e, 0x63, 0x74, 0x69, 0x6f, 0x6e, 0x61, 0x6c, 0x5f, 0x31, 0x2f, 0x63, 0x6f, 0x6e, 0x76, 0x31, 0x64, 0x5f, 0x31, 0x2f, 0x53, 0x71, 0x75, 0x65, 0x65, 0x7a, 0x65, 0x3b, 0x66, 0x75, 0x6e, 0x63, 0x74, 0x69, 0x6f, 0x6e, 0x61, 0x6c, 0x5f, 0x31, 0x2f, 0x63, 0x6f, 0x6e, 0x76, 0x31, 0x64, 0x5f, 0x31, 0x2f, 0x63, 0x6f, 0x6e, 0x76, 0x6f, 0x6c, 0x75, 0x74, 0x69, 0x6f, 0x6e, 0x00, 0x00, 0x04, 0x00, 0x00, 0x00, 0x01, 0x00, 0x00, 0x00, 0x01, 0x00, 0x00, 0x00, 0x0a, 0x00, 0x00, 0x00, 0x10, 0x00, 0x00, 0x00, 0x56, 0xfc, 0xff, 0xff, 0x00, 0x00, 0x00, 0x01, 0x14, 0x00, 0x00, 0x00, 0x24, 0x00, 0x00, 0x00, 0x24, 0x00, 0x00, 0x00, 0x0e, 0x00, 0x00, 0x00, 0x50, 0x00, 0x00, 0x00, 0x04, 0x00, 0x00, 0x00, 0xff, 0xff, 0xff, 0xff, 0x01, 0x00, 0x00, 0x00, 0x0a, 0x00, 0x00, 0x00, 0x06, 0x00, 0x00, 0x00, 0x44, 0xfc, 0xff, 0xff, 0x2c, 0x00, 0x00, 0x00, 0x66, 0x75, 0x6e, 0x63, 0x74, 0x69, 0x6f, 0x6e, 0x61, 0x6c, 0x5f, 0x31, 0x2f, 0x63, 0x6f, 0x6e, 0x76, 0x31, 0x64, 0x5f, 0x31, 0x2f, 0x63, 0x6f, 0x6e, 0x76, 0x6f, 0x6c, 0x75, 0x74, 0x69, 0x6f, 0x6e, 0x2f, 0x45, 0x78, 0x70, 0x61, 0x6e, 0x64, 0x44, 0x69, 0x6d, 0x73, 0x00, 0x00, 0x00, 0x00, 0x04, 0x00, 0x00, 0x00, 0x01, 0x00, 0x00, 0x00, 0x01, 0x00, 0x00, 0x00, 0x0a, 0x00, 0x00, 0x00, 0x06, 0x00, 0x00, 0x00, 0xae, 0xfd, 0xff, 0xff, 0x00, 0x00, 0x00, 0x01, 0x14, 0x00, 0x00, 0x00, 0x14, 0x00, 0x00, 0x00, 0x0d, 0x00, 0x00, 0x00, 0x00, 0x00, 0x00, 0x02, 0x4c, 0x00, 0x00, 0x00, 0xac, 0xfc, 0xff, 0xff, 0x3e, 0x00, 0x00, 0x00, 0x66, 0x75, 0x6e, 0x63, 0x74, 0x69, 0x6f, 0x6e, 0x61, 0x6c, 0x5f, 0x31, 0x2f, 0x67, 0x6c, 0x6f, 0x62, 0x61, 0x6c, 0x5f, 0x61, 0x76, 0x65, 0x72, 0x61, 0x67, 0x65, 0x5f, 0x70, 0x6f, 0x6f, 0x6c, 0x69, 0x6e, 0x67, 0x31, 0x64, 0x5f, 0x31, 0x2f, 0x4d, 0x65, 0x61, 0x6e, 0x2f, 0x72, 0x65, 0x64, 0x75, 0x63, 0x74, 0x69, 0x6f, 0x6e, 0x5f, 0x69, 0x6e, 0x64, 0x69, 0x63, 0x65, 0x73, 0x00, 0x00, 0x00, 0x00, 0x00, 0x00, 0x16, 0xfe, 0xff, 0xff, 0x00, 0x00, 0x00, 0x01, 0x14, 0x00, 0x00, 0x00, 0x14, 0x00, 0x00, 0x00, 0x0c, 0x00, 0x00, 0x00, 0x00, 0x00, 0x00, 0x02, 0x20, 0x00, 0x00, 0x00, 0x14, 0xfd, 0xff, 0xff, 0x10, 0x00, 0x00, 0x00, 0x61, 0x72, 0x69, 0x74, 0x68, 0x2e, 0x63, 0x6f, 0x6e, 0x73, 0x74, 0x61, 0x6e, 0x74, 0x31, 0x30, 0x00, 0x00, 0x00, 0x00, 0x00, 0x00, 0x00, 0x00, 0xc6, 0xfd, 0xff, 0xff, 0x00, 0x00, 0x00, 0x01, 0x10, 0x00, 0x00, 0x00, 0x10, 0x00, 0x00, 0x00, 0x0b, 0x00, 0x00, 0x00, 0x1c, 0x00, 0x00, 0x00, 0x4c, 0xfd, 0xff, 0xff, 0x0f, 0x00, 0x00, 0x00, 0x61, 0x72, 0x69, 0x74, 0x68, 0x2e, 0x63, 0x6f, 0x6e, 0x73, 0x74, 0x61, 0x6e, 0x74, 0x39, 0x00, 0x01, 0x00, 0x00, 0x00, 0x04, 0x00, 0x00, 0x00, 0xfe, 0xfd, 0xff, 0xff, 0x00, 0x00, 0x00, 0x01, 0x10, 0x00, 0x00, 0x00, 0x10, 0x00, 0x00, 0x00, 0x0a, 0x00, 0x00, 0x00, 0x1c, 0x00, 0x00, 0x00, 0x84, 0xfd, 0xff, 0xff, 0x0f, 0x00, 0x00, 0x00, 0x61, 0x72, 0x69, 0x74, 0x68, 0x2e, 0x63, 0x6f, 0x6e, 0x73, 0x74, 0x61, 0x6e, 0x74, 0x38, 0x00, 0x01, 0x00, 0x00, 0x00, 0x20, 0x00, 0x00, 0x00, 0x36, 0xfe, 0xff, 0xff, 0x00, 0x00, 0x00, 0x01, 0x10, 0x00, 0x00, 0x00, 0x10, 0x00, 0x00, 0x00, 0x09, 0x00, 0x00, 0x00, 0x1c, 0x00, 0x00, 0x00, 0xbc, 0xfd, 0xff, 0xff, 0x0f, 0x00, 0x00, 0x00, 0x61, 0x72, 0x69, 0x74, 0x68, 0x2e, 0x63, 0x6f, 0x6e, 0x73, 0x74, 0x61, 0x6e, 0x74, 0x37, 0x00, 0x02, 0x00, 0x00, 0x00, 0x20, 0x00, 0x00, 0x00, 0x20, 0x00, 0x00, 0x00, 0x72, 0xfe, 0xff, 0xff, 0x00, 0x00, 0x00, 0x01, 0x10, 0x00, 0x00, 0x00, 0x10, 0x00, 0x00, 0x00, 0x08, 0x00, 0x00, 0x00, 0x1c, 0x00, 0x00, 0x00, 0xf8, 0xfd, 0xff, 0xff, 0x0f, 0x00, 0x00, 0x00, 0x61, 0x72, 0x69, 0x74, 0x68, 0x2e, 0x63, 0x6f, 0x6e, 0x73, 0x74, 0x61, 0x6e, 0x74, 0x36, 0x00, 0x02, 0x00, 0x00, 0x00, 0x04, 0x00, 0x00, 0x00, 0x20, 0x00, 0x00, 0x00, 0xae, 0xfe, 0xff, 0xff, 0x00, 0x00, 0x00, 0x01, 0x10, 0x00, 0x00, 0x00, 0x10, 0x00, 0x00, 0x00, 0x07, 0x00, 0x00, 0x00, 0x1c, 0x00, 0x00, 0x00, 0x34, 0xfe, 0xff, 0xff, 0x0f, 0x00, 0x00, 0x00, 0x61, 0x72, 0x69, 0x74, 0x68, 0x2e, 0x63, 0x6f, 0x6e, 0x73, 0x74, 0x61, 0x6e, 0x74, 0x35, 0x00, 0x04, 0x00, 0x00, 0x00, 0x10, 0x00, 0x00, 0x00, 0x01, 0x00, 0x00, 0x00, 0x03, 0x00, 0x00, 0x00, 0x06, 0x00, 0x00, 0x00, 0xf2, 0xfe, 0xff, 0xff, 0x00, 0x00, 0x00, 0x01, 0x10, 0x00, 0x00, 0x00, 0x10, 0x00, 0x00, 0x00, 0x06, 0x00, 0x00, 0x00, 0x1c, 0x00, 0x00, 0x00, 0x78, 0xfe, 0xff, 0xff, 0x0f, 0x00, 0x00, 0x00, 0x61, 0x72, 0x69, 0x74, 0x68, 0x2e, 0x63, 0x6f, 0x6e, 0x73, 0x74, 0x61, 0x6e, 0x74, 0x34, 0x00, 0x04, 0x00, 0x00, 0x00, 0x20, 0x00, 0x00, 0x00, 0x01, 0x00, 0x00, 0x00, 0x03, 0x00, 0x00, 0x00, 0x10, 0x00, 0x00, 0x00, 0xc2, 0xff, 0xff, 0xff, 0x00, 0x00, 0x00, 0x01, 0x14, 0x00, 0x00, 0x00, 0x14, 0x00, 0x00, 0x00, 0x05, 0x00, 0x00, 0x00, 0x00, 0x00, 0x00, 0x02, 0x1c, 0x00, 0x00, 0x00, 0xc0, 0xfe, 0xff, 0xff, 0x0f, 0x00, 0x00, 0x00, 0x61, 0x72, 0x69, 0x74, 0x68, 0x2e, 0x63, 0x6f, 0x6e, 0x73, 0x74, 0x61, 0x6e, 0x74, 0x33, 0x00, 0x01, 0x00, 0x00, 0x00, 0x03, 0x00, 0x00, 0x00, 0x00, 0x00, 0x16, 0x00, 0x1c, 0x00, 0x18, 0x00, 0x17, 0x00, 0x10, 0x00, 0x0c, 0x00, 0x08, 0x00, 0x00, 0x00, 0x00, 0x00, 0x00, 0x00, 0x07, 0x00, 0x16, 0x00, 0x00, 0x00, 0x00, 0x00, 0x00, 0x01, 0x14, 0x00, 0x00, 0x00, 0x14, 0x00, 0x00, 0x00, 0x04, 0x00, 0x00, 0x00, 0x00, 0x00, 0x00, 0x02, 0x1c, 0x00, 0x00, 0x00, 0x14, 0xff, 0xff, 0xff, 0x0f, 0x00, 0x00, 0x00, 0x61, 0x72, 0x69, 0x74, 0x68, 0x2e, 0x63, 0x6f, 0x6e, 0x73, 0x74, 0x61, 0x6e, 0x74, 0x32, 0x00, 0x01, 0x00, 0x00, 0x00, 0x03, 0x00, 0x00, 0x00, 0xc6, 0xff, 0xff, 0xff, 0x00, 0x00, 0x00, 0x01, 0x10, 0x00, 0x00, 0x00, 0x10, 0x00, 0x00, 0x00, 0x03, 0x00, 0x00, 0x00, 0x1c, 0x00, 0x00, 0x00, 0x4c, 0xff, 0xff, 0xff, 0x0f, 0x00, 0x00, 0x00, 0x61, 0x72, 0x69, 0x74, 0x68, 0x2e, 0x63, 0x6f, 0x6e, 0x73, 0x74, 0x61, 0x6e, 0x74, 0x31, 0x00, 0x01, 0x00, 0x00, 0x00, 0x10, 0x00, 0x00, 0x00, 0x00, 0x00, 0x16, 0x00, 0x18, 0x00, 0x14, 0x00, 0x00, 0x00, 0x10, 0x00, 0x0c, 0x00, 0x08, 0x00, 0x00, 0x00, 0x00, 0x00, 0x00, 0x00, 0x07, 0x00, 0x16, 0x00, 0x00, 0x00, 0x00, 0x00, 0x00, 0x01, 0x10, 0x00, 0x00, 0x00, 0x10, 0x00, 0x00, 0x00, 0x02, 0x00, 0x00, 0x00, 0x1c, 0x00, 0x00, 0x00, 0x9c, 0xff, 0xff, 0xff, 0x0e, 0x00, 0x00, 0x00, 0x61, 0x72, 0x69, 0x74, 0x68, 0x2e, 0x63, 0x6f, 0x6e, 0x73, 0x74, 0x61, 0x6e, 0x74, 0x00, 0x00, 0x01, 0x00, 0x00, 0x00, 0x20, 0x00, 0x00, 0x00, 0x00, 0x00, 0x16, 0x00, 0x1c, 0x00, 0x18, 0x00, 0x00, 0x00, 0x14, 0x00, 0x10, 0x00, 0x0c, 0x00, 0x00, 0x00, 0x00, 0x00, 0x08, 0x00, 0x07, 0x00, 0x16, 0x00, 0x00, 0x00, 0x00, 0x00, 0x00, 0x01, 0x14, 0x00, 0x00, 0x00, 0x24, 0x00, 0x00, 0x00, 0x24, 0x00, 0x00, 0x00, 0x01, 0x00, 0x00, 0x00, 0x40, 0x00, 0x00, 0x00, 0x03, 0x00, 0x00, 0x00, 0xff, 0xff, 0xff, 0xff, 0x0a, 0x00, 0x00, 0x00, 0x06, 0x00, 0x00, 0x00, 0x04, 0x00, 0x04, 0x00, 0x04, 0x00, 0x00, 0x00, 0x1e, 0x00, 0x00, 0x00, 0x73, 0x65, 0x72, 0x76, 0x69, 0x6e, 0x67, 0x5f, 0x64, 0x65, 0x66, 0x61, 0x75, 0x6c, 0x74, 0x5f, 0x6b, 0x65, 0x72, 0x61, 0x73, 0x5f, 0x74, 0x65, 0x6e, 0x73, 0x6f, 0x72, 0x3a, 0x30, 0x00, 0x00, 0x03, 0x00, 0x00, 0x00, 0x01, 0x00, 0x00, 0x00, 0x0a, 0x00, 0x00, 0x00, 0x06, 0x00, 0x00, 0x00, 0x06, 0x00, 0x00, 0x00, 0x60, 0x00, 0x00, 0x00, 0x44, 0x00, 0x00, 0x00, 0x34, 0x00, 0x00, 0x00, 0x24, 0x00, 0x00, 0x00, 0x14, 0x00, 0x00, 0x00, 0x04, 0x00, 0x00, 0x00, 0xc4, 0xff, 0xff, 0xff, 0x19, 0x00, 0x00, 0x00, 0x00, 0x00, 0x00, 0x19, 0xd0, 0xff, 0xff, 0xff, 0x09, 0x00, 0x00, 0x00, 0x00, 0x00, 0x00, 0x09, 0xdc, 0xff, 0xff, 0xff, 0x28, 0x00, 0x00, 0x00, 0x00, 0x00, 0x00, 0x28, 0xe8, 0xff, 0xff, 0xff, 0x16, 0x00, 0x00, 0x00, 0x00, 0x00, 0x00, 0x16, 0xf4, 0xff, 0xff, 0xff, 0x03, 0x00, 0x00, 0x00, 0x00, 0x00, 0x00, 0x03, 0x0c, 0x00, 0x0c, 0x00, 0x0b, 0x00, 0x00, 0x00, 0x00, 0x00, 0x04, 0x00, 0x0c, 0x00, 0x00, 0x00, 0x46, 0x00, 0x00, 0x00, 0x00, 0x00, 0x00, 0x46
};
const unsigned int model_tflite_len = 16440;
